{
  "version": "1.0",
  "truncation": null,
  "padding": null,
  "added_tokens": [
    {
      "id": 0,
      "content": "<pad>",
      "single_word": false,
      "lstrip": false,
      "rstrip": false,
      "normalized": false,
      "special": true
    },
    {
      "id": 1,
      "content": "<unk>",
      "single_word": false,
      "lstrip": false,
      "rstrip": false,
      "normalized": false,
      "special": true
    },
    {
      "id": 2,
      "content": "<bos>",
      "single_word": false,
      "lstrip": false,
      "rstrip": false,
      "normalized": false,
      "special": true
    },
    {
      "id": 3,
      "content": "<eos>",
      "single_word": false,
      "lstrip": false,
      "rstrip": false,
      "normalized": false,
      "special": true
    }
  ],
  "normalizer": null,
  "pre_tokenizer": {
    "type": "ByteLevel",
    "add_prefix_space": true,
    "trim_offsets": true,
    "use_regex": true
  },
  "post_processor": null,
  "decoder": {
    "type": "ByteLevel",
    "add_prefix_space": true,
    "trim_offsets": true,
    "use_regex": true
  },
  "model": {
    "type": "BPE",
    "dropout": null,
    "unk_token": "<unk>",
    "continuing_subword_prefix": null,
    "end_of_word_suffix": null,
    "fuse_unk": false,
    "byte_fallback": false,
    "ignore_merges": false,
    "vocab": {
      "<pad>": 0,
      "<unk>": 1,
      "<bos>": 2,
      "<eos>": 3,
      "!": 4,
      "\"": 5,
      "#": 6,
      "$": 7,
      "%": 8,
      "&": 9,
      "'": 10,
      "(": 11,
      ")": 12,
      "*": 13,
      "+": 14,
      ",": 15,
      "-": 16,
      ".": 17,
      "/": 18,
      "0": 19,
      "1": 20,
      "2": 21,
      "3": 22,
      "4": 23,
      "5": 24,
      "6": 25,
      "7": 26,
      "8": 27,
      "9": 28,
      ":": 29,
      ";": 30,
      "<": 31,
      "=": 32,
      ">": 33,
      "?": 34,
      "@": 35,
      "A": 36,
      "B": 37,
      "C": 38,
      "D": 39,
      "E": 40,
      "F": 41,
      "G": 42,
      "H": 43,
      "I": 44,
      "J": 45,
      "K": 46,
      "L": 47,
      "M": 48,
      "N": 49,
      "O": 50,
      "P": 51,
      "Q": 52,
      "R": 53,
      "S": 54,
      "T": 55,
      "U": 56,
      "V": 57,
      "W": 58,
      "X": 59,
      "Y": 60,
      "Z": 61,
      "[": 62,
      "\\": 63,
      "]": 64,
      "^": 65,
      "_": 66,
      "`": 67,
      "a": 68,
      "b": 69,
      "c": 70,
      "d": 71,
      "e": 72,
      "f": 73,
      "g": 74,
      "h": 75,
      "i": 76,
      "j": 77,
      "k": 78,
      "l": 79,
      "m": 80,
      "n": 81,
      "o": 82,
      "p": 83,
      "q": 84,
      "r": 85,
      "s": 86,
      "t": 87,
      "u": 88,
      "v": 89,
      "w": 90,
      "x": 91,
      "y": 92,
      "z": 93,
      "|": 94,
      "}": 95,
      "~": 96,
      "¡": 97,
      "¢": 98,
      "£": 99,
      "¤": 100,
      "¥": 101,
      "¦": 102,
      "§": 103,
      "¨": 104,
      "©": 105,
      "ª": 106,
      "«": 107,
      "¬": 108,
      "®": 109,
      "¯": 110,
      "°": 111,
      "±": 112,
      "²": 113,
      "³": 114,
      "´": 115,
      "µ": 116,
      "¶": 117,
      "·": 118,
      "¸": 119,
      "¹": 120,
      "º": 121,
      "»": 122,
      "¼": 123,
      "½": 124,
      "¾": 125,
      "¿": 126,
      "Â": 127,
      "Ã": 128,
      "Ä": 129,
      "Å": 130,
      "Æ": 131,
      "Ç": 132,
      "È": 133,
      "É": 134,
      "Ê": 135,
      "Ë": 136,
      "Ì": 137,
      "Í": 138,
      "Î": 139,
      "Ï": 140,
      "Ð": 141,
      "Ñ": 142,
      "Ò": 143,
      "Ó": 144,
      "Ô": 145,
      "Õ": 146,
      "Ö": 147,
      "×": 148,
      "Ø": 149,
      "Ù": 150,
      "Ú": 151,
      "Û": 152,
      "ß": 153,
      "à": 154,
      "á": 155,
      "â": 156,
      "ã": 157,
      "ä": 158,
      "å": 159,
      "æ": 160,
      "ç": 161,
      "è": 162,
      "é": 163,
      "ê": 164,
      "ë": 165,
      "ì": 166,
      "í": 167,
      "ï": 168,
      "ð": 169,
      "Ċ": 170,
      "Ġ": 171,
      "Ģ": 172,
      "ģ": 173,
      "Ĥ": 174,
      "ĥ": 175,
      "Ħ": 176,
      "ħ": 177,
      "Ĩ": 178,
      "ĩ": 179,
      "Ī": 180,
      "ī": 181,
      "Ĭ": 182,
      "ĭ": 183,
      "Į": 184,
      "į": 185,
      "İ": 186,
      "ı": 187,
      "Ĳ": 188,
      "ĳ": 189,
      "Ĵ": 190,
      "ĵ": 191,
      "Ķ": 192,
      "ķ": 193,
      "ĸ": 194,
      "Ĺ": 195,
      "ĺ": 196,
      "Ļ": 197,
      "ļ": 198,
      "Ľ": 199,
      "ľ": 200,
      "Ŀ": 201,
      "ŀ": 202,
      "Ł": 203,
      "ł": 204,
      "Ń": 205,
      "Ġt": 206,
      "Ġa": 207,
      "in": 208,
      "he": 209,
      "re": 210,
      "on": 211,
      "er": 212,
      "Ġs": 213,
      "Ġthe": 214,
      "at": 215,
      "or": 216,
      "Ġc": 217,
      "nd": 218,
      "ou": 219,
      "es": 220,
      "Ġw": 221,
      "it": 222,
      "en": 223,
      "ing": 224,
      "Ġp": 225,
      "is": 226,
      "Ġf": 227,
      "Ġo": 228,
      "al": 229,
      "Ġb": 230,
      "an": 231,
      "Ġto": 232,
      "Ġand": 233,
      "ed": 234,
      "Ġm": 235,
      "Ġin": 236,
      "ar": 237,
      "Ġof": 238,
      "ion": 239,
      "Ġd": 240,
      "ic": 241,
      "le": 242,
      "ro": 243,
      "as": 244,
      "Ġh": 245,
      "ent": 246,
      "Ġth": 247,
      "Ġy": 248,
      "Ġe": 249,
      "om": 250,
      "il": 251,
      "Ġre": 252,
      "Ġyou": 253,
      "ct": 254,
      "ve": 255,
      "âĢ": 256,
      "st": 257,
      "Ġl": 258,
      "Ġn": 259,
      "et": 260,
      "Ġg": 261,
      "ly": 262,
      "ĠT": 263,
      "Ġfor": 264,
      "ce": 265,
      "id": 266,
      "Ġis": 267,
      "ot": 268,
      "ation": 269,
      "ig": 270,
      "us": 271,
      "Ġbe": 272,
      "ĠI": 273,
      "im": 274,
      "Ġon": 275,
      "ay": 276,
      "ow": 277,
      "ĠS": 278,
      "ol": 279,
      "ra": 280,
      "ith": 281,
      "ers": 282,
      "ĠA": 283,
      "ch": 284,
      "ĠC": 285,
      "Ġst": 286,
      "ur": 287,
      "Ġwith": 288,
      "ut": 289,
      "el": 290,
      "Ġthat": 291,
      "Ġpro": 292,
      "âĢĻ": 293,
      "am": 294,
      "ir": 295,
      "ver": 296,
      "ess": 297,
      "ul": 298,
      "Ġit": 299,
      "ad": 300,
      "Ġan": 301,
      "if": 302,
      "Ġor": 303,
      "Ġcon": 304,
      "Ġal": 305,
      "Ġyour": 306,
      "Ġas": 307,
      "ment": 308,
      "Ġhe": 309,
      "Ġare": 310,
      "un": 311,
      "se": 312,
      "ĠP": 313,
      "ate": 314,
      "ĠM": 315,
      "Ġcom": 316,
      "pp": 317,
      "ge": 318,
      "ill": 319,
      "ke": 320,
      "ab": 321,
      "Ġwh": 322,
      "Ġex": 323,
      "our": 324,
      "out": 325,
      "ity": 326,
      "ter": 327,
      "ĠB": 328,
      "Ġwe": 329,
      "est": 330,
      "ĠW": 331,
      "ive": 332,
      "ure": 333,
      "oo": 334,
      "Ġha": 335,
      "ort": 336,
      "her": 337,
      "ore": 338,
      "Ġv": 339,
      "qu": 340,
      "Ġcan": 341,
      "ect": 342,
      "igh": 343,
      "ĠThe": 344,
      "ies": 345,
      "iv": 346,
      "ck": 347,
      "Ġde": 348,
      "ust": 349,
      "Ġne": 350,
      "ant": 351,
      "ĠD": 352,
      "ist": 353,
      "ĠH": 354,
      "ĠF": 355,
      "Ġse": 356,
      "Ġsu": 357,
      "Ġat": 358,
      "ain": 359,
      "rom": 360,
      "Ġus": 361,
      "art": 362,
      "ial": 363,
      "op": 364,
      "ĠR": 365,
      "Ġr": 366,
      "em": 367,
      "ld": 368,
      "os": 369,
      "Ġch": 370,
      "ĠE": 371,
      "Ġen": 372,
      "nt": 373,
      "and": 374,
      "Ġsh": 375,
      "per": 376,
      "Ġfrom": 377,
      "ĠL": 378,
      "um": 379,
      "ight": 380,
      "Ġhave": 381,
      "th": 382,
      "Ġnot": 383,
      "Ġle": 384,
      "res": 385,
      "Ġthis": 386,
      "pe": 387,
      "Ġu": 388,
      "Ġpl": 389,
      "ĠG": 390,
      "Ġby": 391,
      "ud": 392,
      "ions": 393,
      "Ġwill": 394,
      "ĠâĢ": 395,
      "ard": 396,
      "ri": 397,
      "pt": 398,
      "ide": 399,
      "Ġad": 400,
      "ĠN": 401,
      "od": 402,
      "all": 403,
      "ĠO": 404,
      "oc": 405,
      "ome": 406,
      "Ġ(": 407,
      "ine": 408,
      "Ġcomp": 409,
      "Ġwor": 410,
      "are": 411,
      "ost": 412,
      "Ġ2": 413,
      "age": 414,
      "Ġwas": 415,
      "able": 416,
      "Ġ1": 417,
      "Ġall": 418,
      "cc": 419,
      "for": 420,
      "Ġma": 421,
      "Ġab": 422,
      "rou": 423,
      "king": 424,
      "iz": 425,
      "ance": 426,
      "pl": 427,
      "ff": 428,
      "ice": 429,
      "Ġint": 430,
      "ag": 431,
      "Ġtheir": 432,
      "ere": 433,
      "ther": 434,
      "ast": 435,
      "gh": 436,
      "Ġim": 437,
      "ally": 438,
      "act": 439,
      "Ġj": 440,
      "du": 441,
      "ie": 442,
      "ip": 443,
      "ould": 444,
      "Ġour": 445,
      "og": 446,
      "Ġcont": 447,
      "ell": 448,
      "ign": 449,
      "Ġwhe": 450,
      "The": 451,
      "form": 452,
      "Ġinc": 453,
      "ire": 454,
      "ail": 455,
      "Ġhas": 456,
      "ac": 457,
      "ear": 458,
      "ations": 459,
      "ack": 460,
      "ans": 461,
      "ib": 462,
      "Ġmore": 463,
      "ĠTh": 464,
      "ated": 465,
      "ĠU": 466,
      "Ġdo": 467,
      "Ġapp": 468,
      "Ġte": 469,
      "ry": 470,
      "Ġres": 471,
      "Ġk": 472,
      "Ġout": 473,
      "ind": 474,
      "ime": 475,
      "Ġcl": 476,
      "very": 477,
      "ence": 478,
      "ous": 479,
      "ich": 480,
      "Ġme": 481,
      "Ġoff": 482,
      "so": 483,
      "one": 484,
      "ult": 485,
      "ong": 486,
      "Ġun": 487,
      "Ġup": 488,
      "âĢĿ": 489,
      "ĠIn": 490,
      "ru": 491,
      "ite": 492,
      "Ġthey": 493,
      "erv": 494,
      "Ġbut": 495,
      "Ġso": 496,
      "Ġman": 497,
      "ep": 498,
      "ike": 499,
      "Ġfe": 500,
      "reat": 501,
      "00": 502,
      "ks": 503,
      "ase": 504,
      "ical": 505,
      "ĠJ": 506,
      "ood": 507,
      "ĠY": 508,
      "Ġimp": 509,
      "Ġper": 510,
      "ace": 511,
      "Ġalso": 512,
      "Ġany": 513,
      "vel": 514,
      "ile": 515,
      "Ġsp": 516,
      "ition": 517,
      "Ġqu": 518,
      "ll": 519,
      "ame": 520,
      "ach": 521,
      "Ġacc": 522,
      "Ġabout": 523,
      "Ġpart": 524,
      "'s": 525,
      "Ġwhich": 526,
      "ia": 527,
      "Ġprov": 528,
      "Ġdis": 529,
      "ount": 530,
      "Ġsa": 531,
      "Ġother": 532,
      "ree": 533,
      "Ġone": 534,
      "Ġtra": 535,
      "ents": 536,
      "Ġtime": 537,
      "Ġev": 538,
      "ors": 539,
      "Ġpre": 540,
      "ays": 541,
      "ress": 542,
      "Ġneed": 543,
      "ĠâĢľ": 544,
      "ĠSt": 545,
      "ary": 546,
      "Ġlike": 547,
      "ark": 548,
      "ap": 549,
      "Ġgo": 550,
      "Ġwho": 551,
      "ass": 552,
      "Ġem": 553,
      "ue": 554,
      "end": 555,
      "ction": 556,
      "Ġcomm": 557,
      "ĠIt": 558,
      "Ġnew": 559,
      "av": 560,
      "ings": 561,
      "Ġ20": 562,
      "Ġits": 563,
      "anc": 564,
      "lp": 565,
      "Ġtr": 566,
      "now": 567,
      "Ġta": 568,
      "Ġthem": 569,
      "ĠK": 570,
      "ĠThis": 571,
      "Ġexper": 572,
      "nder": 573,
      "Ġspe": 574,
      "Ġhelp": 575,
      "ments": 576,
      "ber": 577,
      "Ġrec": 578,
      "ens": 579,
      "ĠV": 580,
      "ub": 581,
      "lud": 582,
      "ne": 583,
      "Ġdes": 584,
      "ook": 585,
      "Ġover": 586,
      "oy": 587,
      "ility": 588,
      "Ġsc": 589,
      "Ġar": 590,
      "ices": 591,
      "ific": 592,
      "ual": 593,
      "ild": 594,
      "Ġind": 595,
      "Ġmy": 596,
      "ick": 597,
      "Ġmay": 598,
      "Ġwork": 599,
      "Ġpr": 600,
      "ose": 601,
      "red": 602,
      "Ġserv": 603,
      "Ġsome": 604,
      "Ġadd": 605,
      "ov": 606,
      "low": 607,
      "Ġro": 608,
      "rough": 609,
      "Ġif": 610,
      "Ġinto": 611,
      "ob": 612,
      "ove": 613,
      "Ġget": 614,
      "Ġhis": 615,
      "pport": 616,
      "ities": 617,
      "Ġyear": 618,
      "ĠCh": 619,
      "ord": 620,
      "Ġpe": 621,
      "Ġwhen": 622,
      "Ġag": 623,
      "ater": 624,
      "ience": 625,
      "ĠWe": 626,
      "Ġinclud": 627,
      "Ġhow": 628,
      "Ġprodu": 629,
      "enc": 630,
      "ning": 631,
      "lic": 632,
      "iness": 633,
      "ond": 634,
      "ting": 635,
      "cess": 636,
      "ful": 637,
      "Ġthere": 638,
      "Ġcons": 639,
      "ish": 640,
      "Ġcol": 641,
      "ating": 642,
      "ates": 643,
      "Ġthese": 644,
      "ons": 645,
      "Ġwhat": 646,
      "Ġuse": 647,
      "Ġbeen": 648,
      "Ġknow": 649,
      "ts": 650,
      "row": 651,
      "ang": 652,
      "lect": 653,
      "Ġbet": 654,
      "ious": 655,
      "Ġmake": 656,
      "ory": 657,
      "ures": 658,
      "Ġbec": 659,
      "Ġthan": 660,
      "ak": 661,
      "ise": 662,
      "usiness": 663,
      "fere": 664,
      "ound": 665,
      "Ġjust": 666,
      "oin": 667,
      "Ġreg": 668,
      "te": 669,
      "Ġeff": 670,
      "tern": 671,
      "uring": 672,
      "Ġunder": 673,
      "Ġinv": 674,
      "cial": 675,
      "Ġthrough": 676,
      "ople": 677,
      "aus": 678,
      "Ġsy": 679,
      "erson": 680,
      "ram": 681,
      "Ġact": 682,
      "Ġbu": 683,
      "ough": 684,
      "Ġam": 685,
      "Ġevery": 686,
      "Ġher": 687,
      "Ġrep": 688,
      "line": 689,
      "Ġ3": 690,
      "ustom": 691,
      "Ġrel": 692,
      "Ġke": 693,
      "formation": 694,
      "irst": 695,
      "own": 696,
      "hen": 697,
      "Ġno": 698,
      "les": 699,
      "Ġmost": 700,
      "Ġpeople": 701,
      "ular": 702,
      "ject": 703,
      "bs": 704,
      "Ġbusiness": 705,
      "ract": 706,
      "old": 707,
      "Ġplay": 708,
      "ible": 709,
      "Ġwere": 710,
      "Ġass": 711,
      "ric": 712,
      "Ġonly": 713,
      "Ġdif": 714,
      "oth": 715,
      "tain": 716,
      "ĠâĢĵ": 717,
      "Ġ|": 718,
      "ft": 719,
      "Ġwell": 720,
      "ĠRe": 721,
      "alth": 722,
      "wn": 723,
      "pect": 724,
      "ple": 725,
      "Ġwould": 726,
      "fter": 727,
      "Ġrequ": 728,
      "its": 729,
      "arket": 730,
      "Ġsuch": 731,
      "stem": 732,
      "Ġhigh": 733,
      "ange": 734,
      "als": 735,
      "Ġhad": 736,
      "Ġprovid": 737,
      "ĠYou": 738,
      "Ġco": 739,
      "round": 740,
      "we": 741,
      "Ġbl": 742,
      "ata": 743,
      "Ġsec": 744,
      "Ġtrans": 745,
      "hed": 746,
      "Ġac": 747,
      "iew": 748,
      "Ġpos": 749,
      "olog": 750,
      "ient": 751,
      "Ġdesign": 752,
      "any": 753,
      "Ġatt": 754,
      "Ġperson": 755,
      "ause": 756,
      "Ġcustom": 757,
      "Ġins": 758,
      "rit": 759,
      "chn": 760,
      "velop": 761,
      "Ġproduct": 762,
      "Ġrem": 763,
      "ased": 764,
      "get": 765,
      "Ġsm": 766,
      "ife": 767,
      "ian": 768,
      "ential": 769,
      "ink": 770,
      "Ġsee": 771,
      "omm": 772,
      "ade": 773,
      "ative": 774,
      "fore": 775,
      "Ġdec": 776,
      "Ġfirst": 777,
      "Ġinformation": 778,
      "Ġent": 779,
      "Ġph": 780,
      "ality": 781,
      "ock": 782,
      "aw": 783,
      "urn": 784,
      "Ġwhere": 785,
      "hip": 786,
      "erm": 787,
      "ss": 788,
      "Ġgu": 789,
      "Ġinst": 790,
      "Ġfin": 791,
      "ward": 792,
      "Ġwant": 793,
      "Ġstr": 794,
      "iss": 795,
      "ily": 796,
      "Ġright": 797,
      "Ġset": 798,
      "xt": 799,
      "Ġsupport": 800,
      "Ġadv": 801,
      "Ġback": 802,
      "ren": 803,
      "Ġens": 804,
      "ational": 805,
      "eth": 806,
      "Ġopt": 807,
      "Ġprocess": 808,
      "Ġtw": 809,
      "ont": 810,
      "ĠPro": 811,
      "Ġav": 812,
      "Ġra": 813,
      "ĠHe": 814,
      "ten": 815,
      "ph": 816,
      "ower": 817,
      "Ġmany": 818,
      "Ġfl": 819,
      "ics": 820,
      "Ġeven": 821,
      "Ġway": 822,
      "Ġcas": 823,
      "ces": 824,
      "Ġbest": 825,
      "Ġsystem": 826,
      "ional": 827,
      "Ġdiffere": 828,
      "elf": 829,
      "ew": 830,
      "Ġexperience": 831,
      "Ġmarket": 832,
      "Ġshould": 833,
      "Ġcre": 834,
      "ize": 835,
      "gan": 836,
      "Ġdisc": 837,
      "In": 838,
      "Ġown": 839,
      "ec": 840,
      "Ġsign": 841,
      "ef": 842,
      "day": 843,
      "Ġshe": 844,
      "Ġstud": 845,
      "Ġloc": 846,
      "hat": 847,
      "ool": 848,
      "Ġvis": 849,
      "olut": 850,
      "Ġdet": 851,
      "Ġdevelop": 852,
      "ener": 853,
      "Ġdel": 854,
      "ble": 855,
      "ident": 856,
      "Ġ-": 857,
      "Ġprof": 858,
      "Ġcommun": 859,
      "ys": 860,
      "Ġ202": 861,
      "Ġfind": 862,
      "ĠIf": 863,
      "Ġtechn": 864,
      "Ġoffer": 865,
      "ty": 866,
      "Ġdata": 867,
      "ied": 868,
      "Ġlong": 869,
      "ues": 870,
      "Ġmod": 871,
      "rib": 872,
      "Ġyears": 873,
      "Ġlead": 874,
      "Ġstart": 875,
      "mer": 876,
      "und": 877,
      "Ġcould": 878,
      "Ġhealth": 879,
      "Ġgood": 880,
      "air": 881,
      "ted": 882,
      "hes": 883,
      "ives": 884,
      "Ġtake": 885,
      "Ġsaid": 886,
      "ivers": 887,
      "Ġaut": 888,
      "Ġteam": 889,
      "Ġgam": 890,
      "arch": 891,
      "ps": 892,
      "Ġhome": 893,
      "Ġworld": 894,
      "Ġcare": 895,
      "stand": 896,
      "Ġmed": 897,
      "iqu": 898,
      "Ġsim": 899,
      "Ġwhile": 900,
      "Ġ5": 901,
      "Ġcomple": 902,
      "ines": 903,
      "ness": 904,
      "Ġvar": 905,
      "Ġgreat": 906,
      "uch": 907,
      "Ġsk": 908,
      "Ġcar": 909,
      "Ġexp": 910,
      "Ġtwo": 911,
      "Ġafter": 912,
      "Ġinter": 913,
      "ized": 914,
      "Ġ\"": 915,
      "led": 916,
      "ital": 917,
      "Ġonline": 918,
      "Ġbr": 919,
      "eg": 920,
      "Th": 921,
      "Ġvery": 922,
      "ited": 923,
      "Ġext": 924,
      "ollow": 925,
      "Ġmon": 926,
      "Ġprog": 927,
      "ĠFor": 928,
      "Ġcle": 929,
      "der": 930,
      "ages": 931,
      "Ġche": 932,
      "Ġthose": 933,
      "arm": 934,
      "Ġallow": 935,
      "Ġimport": 936,
      "ner": 937,
      "ork": 938,
      "Ġ4": 939,
      "Ġsur": 940,
      "ety": 941,
      "ling": 942,
      "Ġval": 943,
      "Ġmin": 944,
      "Ġprovide": 945,
      "ath": 946,
      "Ġeas": 947,
      "Ġpur": 948,
      "Ġdifferent": 949,
      "Ġlife": 950,
      "Ġty": 951,
      "Ġnow": 952,
      "Ġpres": 953,
      "ĠUn": 954,
      "Ġaccess": 955,
      "We": 956,
      ").": 957,
      "Ġart": 958,
      "Ġpol": 959,
      "Ġread": 960,
      "Ġhand": 961,
      "ateg": 962,
      "Ġbefore": 963,
      "Ġdon": 964,
      "com": 965,
      "ven": 966,
      ".âĢĿ": 967,
      "ever": 968,
      "Ġpay": 969,
      "Ġ&": 970,
      "Ġdown": 971,
      "Ġfam": 972,
      "Ġthen": 973,
      "cept": 974,
      "Ġmain": 975,
      "Ġused": 976,
      "..": 977,
      "ered": 978,
      "Ġref": 979,
      "ually": 980,
      "Ġret": 981,
      "Ġsub": 982,
      "Ġshow": 983,
      "Ġservices": 984,
      "Ġrequire": 985,
      "Ġeach": 986,
      "less": 987,
      "ng": 988,
      "Ġbecause": 989,
      "Ġincluding": 990,
      "Ġdoes": 991,
      "ving": 992,
      "ĠAnd": 993,
      "iving": 994,
      "Ġfeat": 995,
      "Ġnum": 996,
      "Ġday": 997,
      "ced": 998,
      "Ġcur": 999,
      "Ġappro": 1000,
      "ake": 1001,
      "Ġmade": 1002,
      "Ġeffect": 1003,
      "erg": 1004,
      "Ġfree": 1005,
      "Ġmem": 1006,
      "Ġform": 1007,
      "ĠAs": 1008,
      "other": 1009,
      "tle": 1010,
      "kes": 1011,
      "Ġbeing": 1012,
      "Ġpartic": 1013,
      "arn": 1014,
      "Ġfun": 1015,
      "Ġfollow": 1016,
      "irect": 1017,
      "Ġreal": 1018,
      "rand": 1019,
      "Ġgrow": 1020,
      "ection": 1021,
      "els": 1022,
      "Ġavail": 1023,
      "Ġmuch": 1024,
      "ienc": 1025,
      "Ġboth": 1026,
      "Ġend": 1027,
      "ability": 1028,
      "lease": 1029,
      "ino": 1030,
      "Ġful": 1031,
      "Ġusing": 1032,
      "up": 1033,
      "Ġresp": 1034,
      "ier": 1035,
      "Ġinf": 1036,
      "Ġgl": 1037,
      "ict": 1038,
      "io": 1039,
      "Ġhere": 1040,
      "ploy": 1041,
      "ĠAd": 1042,
      "dition": 1043,
      "ee": 1044,
      "ins": 1045,
      "Ġsaf": 1046,
      "atch": 1047,
      "Ġ201": 1048,
      "ix": 1049,
      "Ġed": 1050,
      "Ġwithout": 1051,
      "ically": 1052,
      "Ġdr": 1053,
      "Ġspec": 1054,
      "'t": 1055,
      "view": 1056,
      "ider": 1057,
      "ween": 1058,
      "ĠSh": 1059,
      "ooking": 1060,
      "Ġop": 1061,
      "Ġcost": 1062,
      "Ġkeep": 1063,
      "Ġpub": 1064,
      "ural": 1065,
      "Ġwebs": 1066,
      "Ġservice": 1067,
      "Ġchar": 1068,
      "ĠThey": 1069,
      "over": 1070,
      "ology": 1071,
      "nce": 1072,
      "ccess": 1073,
      "ason": 1074,
      "Ġorgan": 1075,
      "Ġagain": 1076,
      "Ġlook": 1077,
      "Ġeng": 1078,
      "Ġ$": 1079,
      "ants": 1080,
      "âĢľ": 1081,
      "Ġplan": 1082,
      "Ġcount": 1083,
      "orts": 1084,
      "Ġprot": 1085,
      "Ġinvest": 1086,
      "ross": 1087,
      "ash": 1088,
      "ware": 1089,
      "ify": 1090,
      "Ġstand": 1091,
      "Ġbetween": 1092,
      "Ġperform": 1093,
      "agement": 1094,
      "Ġresult": 1095,
      "Ġgame": 1096,
      "ivid": 1097,
      "Ġpersonal": 1098,
      "Ġincre": 1099,
      "Ġgener": 1100,
      "Ġbuild": 1101,
      "ways": 1102,
      "ather": 1103,
      "Ġprogram": 1104,
      "Ġ19": 1105,
      "Ġconf": 1106,
      "Ġsl": 1107,
      "ank": 1108,
      "Ġavailable": 1109,
      "Ġmaking": 1110,
      "Ġexpl": 1111,
      "ale": 1112,
      "Ġiss": 1113,
      "Ġcompany": 1114,
      "riend": 1115,
      "Ġproject": 1116,
      "Ġcall": 1117,
      "Ġduring": 1118,
      "ern": 1119,
      "Ġimportant": 1120,
      "ruct": 1121,
      "chool": 1122,
      "),": 1123,
      "ining": 1124,
      "Ġtoo": 1125,
      "ets": 1126,
      "Ġaround": 1127,
      "way": 1128,
      "ĠEx": 1129,
      "enef": 1130,
      "Ġimpro": 1131,
      "Ġunderstand": 1132,
      "Ġproper": 1133,
      "Ġprofess": 1134,
      "ave": 1135,
      "Ġwithin": 1136,
      "Ġchild": 1137,
      "eng": 1138,
      "ĠHow": 1139,
      "Ġprom": 1140,
      "imes": 1141,
      "Ġdef": 1142,
      "Ġtop": 1143,
      "ĠAl": 1144,
      "ex": 1145,
      "Ġposs": 1146,
      "read": 1147,
      "This": 1148,
      "ouse": 1149,
      "Ġcontin": 1150,
      "Ġfeel": 1151,
      "uc": 1152,
      "amp": 1153,
      "Ġcour": 1154,
      "Ġcreat": 1155,
      "Ġplace": 1156,
      "ved": 1157,
      "Ġhim": 1158,
      "ves": 1159,
      "iron": 1160,
      "Ġsoc": 1161,
      "Ġdid": 1162,
      "Ġindust": 1163,
      "ients": 1164,
      "âĢĶ": 1165,
      "Ġrece": 1166,
      "ms": 1167,
      "ration": 1168,
      "pr": 1169,
      "bers": 1170,
      "Ġmust": 1171,
      "vent": 1172,
      "Ġcor": 1173,
      "Ġneeds": 1174,
      "az": 1175,
      "Ġoper": 1176,
      "ĠPl": 1177,
      "erest": 1178,
      "Ġpat": 1179,
      "Ġser": 1180,
      "Ġorder": 1181,
      "ique": 1182,
      "Ġapplic": 1183,
      "ĠAn": 1184,
      "oint": 1185,
      "Ġwee": 1186,
      "Ġlist": 1187,
      "Ġfact": 1188,
      "Ġob": 1189,
      "Ġleg": 1190,
      "urity": 1191,
      "ividual": 1192,
      "ense": 1193,
      "ĠCl": 1194,
      "Ġpot": 1195,
      "ipp": 1196,
      "Ġoften": 1197,
      "Ġsom": 1198,
      "pend": 1199,
      "Ġlar": 1200,
      "rol": 1201,
      "Ġaddition": 1202,
      "ince": 1203,
      "oad": 1204,
      "Ġpract": 1205,
      "aut": 1206,
      "ĠWh": 1207,
      "Ġexam": 1208,
      "ocus": 1209,
      "rent": 1210,
      "viron": 1211,
      ",âĢĿ": 1212,
      "Ġaccount": 1213,
      "ĠWith": 1214,
      "Ġbo": 1215,
      "Ġproducts": 1216,
      "Ġstate": 1217,
      "ĠNew": 1218,
      "gg": 1219,
      "Ġ6": 1220,
      "ribut": 1221,
      "Ġconn": 1222,
      "oney": 1223,
      "Ġconc": 1224,
      "Ġve": 1225,
      "Ġbenef": 1226,
      "Ġest": 1227,
      "Ġlast": 1228,
      "Ġsame": 1229,
      "Ġlevel": 1230,
      "itive": 1231,
      "Ġfound": 1232,
      "Ġstrateg": 1233,
      "ĠDe": 1234,
      "ody": 1235,
      "Ġwebsite": 1236,
      "000": 1237,
      "ertain": 1238,
      "ert": 1239,
      "Ġcreate": 1240,
      "pos": 1241,
      "Ġindividual": 1242,
      "Ġensure": 1243,
      "land": 1244,
      "Ġpower": 1245,
      "joy": 1246,
      "Ġide": 1247,
      "Ġlit": 1248,
      "Ġdist": 1249,
      "If": 1250,
      "ars": 1251,
      "Ġbetter": 1252,
      "Ġspecial": 1253,
      "Ġsmall": 1254,
      "Ġmight": 1255,
      "Ġwater": 1256,
      "itions": 1257,
      "ards": 1258,
      "Ġsit": 1259,
      "con": 1260,
      "ots": 1261,
      "fect": 1262,
      "iel": 1263,
      "Ġoffers": 1264,
      "atform": 1265,
      "ĠBut": 1266,
      "Ġstill": 1267,
      "Ġquality": 1268,
      "Ġris": 1269,
      "Ġrest": 1270,
      "Ġlaw": 1271,
      "Ġpass": 1272,
      "ral": 1273,
      "Ġintern": 1274,
      "Ġemploy": 1275,
      "ision": 1276,
      "ĠInd": 1277,
      "oun": 1278,
      "Ġlove": 1279,
      "Ġinterest": 1280,
      "ights": 1281,
      "Ġquest": 1282,
      "ization": 1283,
      "ĠCom": 1284,
      "Ġpost": 1285,
      "Ġdirect": 1286,
      "Ġhapp": 1287,
      "Ġtest": 1288,
      "ĠThese": 1289,
      "Ġnat": 1290,
      "Ġbel": 1291,
      "Ġsuccess": 1292,
      "Ġspecific": 1293,
      "Ġalways": 1294,
      "Ġopen": 1295,
      "ists": 1296,
      "aterial": 1297,
      "Ġfew": 1298,
      "ney": 1299,
      "arly": 1300,
      "Ġsolut": 1301,
      "ĠSo": 1302,
      "ared": 1303,
      "self": 1304,
      "Ġmonth": 1305,
      "ately": 1306,
      "Ġtool": 1307,
      "Ġgoing": 1308,
      "uss": 1309,
      "pportun": 1310,
      "Ġnumber": 1311,
      "Ġenviron": 1312,
      "Ġcent": 1313,
      "Ġgra": 1314,
      "Ġdetail": 1315,
      "Ġfil": 1316,
      "Ġfocus": 1317,
      "Ġdem": 1318,
      "Ġ10": 1319,
      "ances": 1320,
      "Ġequ": 1321,
      "ĠAr": 1322,
      "Ġkey": 1323,
      "orth": 1324,
      "ream": 1325,
      "ering": 1326,
      "Ġtyp": 1327,
      "Ġ7": 1328,
      "Ġrun": 1329,
      "Ġrese": 1330,
      "Ġthink": 1331,
      "ĠQ": 1332,
      "Ġsure": 1333,
      "apt": 1334,
      "Ġcome": 1335,
      "de": 1336,
      "Ġcontent": 1337,
      "ills": 1338,
      "Ġreally": 1339,
      "oss": 1340,
      "thing": 1341,
      "Ġfamily": 1342,
      "Ġredu": 1343,
      "Ġdays": 1344,
      "ined": 1345,
      "the": 1346,
      "Ġpop": 1347,
      "Ġenh": 1348,
      "Ġfac": 1349,
      "Ġactiv": 1350,
      "por": 1351,
      "Ġenjoy": 1352,
      "to": 1353,
      "Ġthings": 1354,
      "Ġplatform": 1355,
      "Ġlocal": 1356,
      "Ġcommunity": 1357,
      "Ġopportun": 1358,
      "ibility": 1359,
      "reen": 1360,
      "ĠTo": 1361,
      "fort": 1362,
      "ead": 1363,
      "Ġmat": 1364,
      "ĠThere": 1365,
      "Ġthough": 1366,
      "cl": 1367,
      "Ġbrand": 1368,
      "Ġsignific": 1369,
      "ieve": 1370,
      "ah": 1371,
      "Ġinclude": 1372,
      "ism": 1373,
      "ield": 1374,
      "Ġmeet": 1375,
      "Ġsupp": 1376,
      "ĠOur": 1377,
      "oor": 1378,
      "port": 1379,
      "Ġcap": 1380,
      "ently": 1381,
      "iven": 1382,
      "It": 1383,
      "Ġpublic": 1384,
      "ug": 1385,
      "Ġchall": 1386,
      "Ġmaterial": 1387,
      "ium": 1388,
      "Ġfull": 1389,
      "Ġable": 1390,
      "Ġgrou": 1391,
      "ination": 1392,
      "Ġemail": 1393,
      "ished": 1394,
      "Ġpotential": 1395,
      "ior": 1396,
      "Ġmult": 1397,
      "Ġdev": 1398,
      "ething": 1399,
      "ton": 1400,
      "iver": 1401,
      "Ġclass": 1402,
      "iting": 1403,
      "Ġele": 1404,
      "Ġwin": 1405,
      "Ġbre": 1406,
      "Ġess": 1407,
      "Ġsocial": 1408,
      "ancial": 1409,
      "Ġproble": 1410,
      "Ġthree": 1411,
      "ĠYour": 1412,
      "Ġcheck": 1413,
      "ĠBe": 1414,
      "vers": 1415,
      "hor": 1416,
      "Ġconsider": 1417,
      "Ġterm": 1418,
      "aging": 1419,
      "uture": 1420,
      "Ġperfect": 1421,
      "Ġindustry": 1422,
      "lish": 1423,
      "iety": 1424,
      "Ġmoney": 1425,
      "ĠBl": 1426,
      "ĠSp": 1427,
      "Ġmus": 1428,
      "ified": 1429,
      "Ġbig": 1430,
      "ency": 1431,
      "ention": 1432,
      "ĠSc": 1433,
      "Ġlooking": 1434,
      "Ġmet": 1435,
      "Ġgames": 1436,
      "Ġacross": 1437,
      "Ġsay": 1438,
      "Ġnext": 1439,
      "oose": 1440,
      "Ġlet": 1441,
      "ote": 1442,
      "Ġfeatures": 1443,
      "sc": 1444,
      "Ġtreat": 1445,
      "alk": 1446,
      "oot": 1447,
      "ours": 1448,
      "Ġworking": 1449,
      "Ġtry": 1450,
      "igital": 1451,
      "Ġ8": 1452,
      "ems": 1453,
      "ission": 1454,
      "Ġchang": 1455,
      "work": 1456,
      "Ġtoday": 1457,
      "Ġschool": 1458,
      "med": 1459,
      "vern": 1460,
      "Ġcurrent": 1461,
      "Ġsomething": 1462,
      "Ġunique": 1463,
      "Ġsignificant": 1464,
      "ger": 1465,
      "ories": 1466,
      "aking": 1467,
      "let": 1468,
      "Ġlot": 1469,
      "be": 1470,
      "Ġless": 1471,
      "Ġident": 1472,
      "meric": 1473,
      "ird": 1474,
      "Ġenvironment": 1475,
      "Ġel": 1476,
      "ĠOn": 1477,
      "ax": 1478,
      "ilities": 1479,
      "Ġfriend": 1480,
      "ĠâĢĺ": 1481,
      "Ġvarious": 1482,
      "Ġconst": 1483,
      "here": 1484,
      "ĠComm": 1485,
      "Ġvide": 1486,
      "icle": 1487,
      "ĠCon": 1488,
      "Ġgive": 1489,
      "Ġes": 1490,
      "of": 1491,
      "Ġbeh": 1492,
      "Ġlim": 1493,
      "Ġeasy": 1494,
      "cy": 1495,
      "Ġsoft": 1496,
      "Ġimpact": 1497,
      "Ġanother": 1498,
      "What": 1499,
      "oice": 1500,
      "Ġ9": 1501,
      "Ġgovern": 1502,
      "Ġstep": 1503,
      "ĠTe": 1504,
      "inal": 1505,
      "Ġeffective": 1506,
      "Ġcr": 1507,
      "ised": 1508,
      "Ġsecurity": 1509,
      "Ġput": 1510,
      "Ġchange": 1511,
      "ĠTr": 1512,
      "pecial": 1513,
      "yle": 1514,
      "Ġanal": 1515,
      "Ġhum": 1516,
      "20": 1517,
      "Ġreport": 1518,
      "ER": 1519,
      "ĠAll": 1520,
      "Ġfood": 1521,
      "Ġrespons": 1522,
      "Ġbased": 1523,
      "Ġquick": 1524,
      "Ġcontrol": 1525,
      "Ġoptions": 1526,
      "Ġhard": 1527,
      "man": 1528,
      "Ġparticular": 1529,
      "You": 1530,
      "Ġdevelopment": 1531,
      "au": 1532,
      "Ġgr": 1533,
      "Ġwrit": 1534,
      "ries": 1535,
      "nov": 1536,
      "Ġcustomers": 1537,
      "ising": 1538,
      "Ġaddress": 1539,
      "me": 1540,
      "ains": 1541,
      "Ġelect": 1542,
      "How": 1543,
      "ator": 1544,
      "Ġimprove": 1545,
      "Ġsal": 1546,
      "Ġwom": 1547,
      "Ġinvol": 1548,
      "Ġrange": 1549,
      "Ġfuture": 1550,
      "Ġlearn": 1551,
      "Ġland": 1552,
      "Ġcustomer": 1553,
      "Ġlight": 1554,
      "urther": 1555,
      "Ġtre": 1556,
      "ication": 1557,
      "Ġarea": 1558,
      "fact": 1559,
      "Ġhead": 1560,
      "Ġcasino": 1561,
      "Ġcase": 1562,
      "ĠUS": 1563,
      "fer": 1564,
      "St": 1565,
      "Ġeffic": 1566,
      "int": 1567,
      "Ġdi": 1568,
      "lection": 1569,
      "Ġlittle": 1570,
      "Ġcontact": 1571,
      "Ġhist": 1572,
      "ethod": 1573,
      "part": 1574,
      "Ġtru": 1575,
      "ĠAmeric": 1576,
      "Ġpurch": 1577,
      "Ġfinancial": 1578,
      "Ġsite": 1579,
      "orm": 1580,
      "ury": 1581,
      "Ġconnect": 1582,
      "ode": 1583,
      "iversity": 1584,
      "ĠBy": 1585,
      "oci": 1586,
      "illion": 1587,
      "Ġexperienc": 1588,
      "Ġbecome": 1589,
      "Ġclean": 1590,
      "ĠSe": 1591,
      "Ġresearch": 1592,
      "ĠServ": 1593,
      "Ġaff": 1594,
      "ute": 1595,
      "ĠRes": 1596,
      "Ġview": 1597,
      "aim": 1598,
      "orn": 1599,
      "aring": 1600,
      "Ġexpect": 1601,
      "cing": 1602,
      "ĠShe": 1603,
      "Ġreturn": 1604,
      "Ġcompan": 1605,
      "ured": 1606,
      "Ġmanagement": 1607,
      "Ġcomplete": 1608,
      "li": 1609,
      "Ġtechnology": 1610,
      "ored": 1611,
      "Ġbuy": 1612,
      "Ġevent": 1613,
      "ĠAt": 1614,
      "Ġperformance": 1615,
      "Ġpossible": 1616,
      "As": 1617,
      "Ġfund": 1618,
      "ources": 1619,
      "aster": 1620,
      "Ġenerg": 1621,
      "Ġmakes": 1622,
      "ĠWhen": 1623,
      "br": 1624,
      "Ġprovides": 1625,
      "ok": 1626,
      "Ġspace": 1627,
      "Ġmeans": 1628,
      "Ġair": 1629,
      "ret": 1630,
      "Ġwhy": 1631,
      "Ġagainst": 1632,
      "Ġcommit": 1633,
      "Wh": 1634,
      "izing": 1635,
      "ners": 1636,
      "Ġeduc": 1637,
      "Ġbeaut": 1638,
      "Ġjob": 1639,
      "Ġmov": 1640,
      "Ġbro": 1641,
      "Ġsince": 1642,
      "Ġaud": 1643,
      "duct": 1644,
      "Ġcompet": 1645,
      "ĠMan": 1646,
      "Ġprotect": 1647,
      "Ġvisit": 1648,
      "Ġessential": 1649,
      "For": 1650,
      "Ġprofessional": 1651,
      "ĠZ": 1652,
      "Ġbas": 1653,
      "wards": 1654,
      "oring": 1655,
      "oh": 1656,
      "ired": 1657,
      "ding": 1658,
      "Ġissues": 1659,
      "Ġstudents": 1660,
      "ording": 1661,
      "Ġusers": 1662,
      "ĠIs": 1663,
      "Ġpain": 1664,
      "Ġcomb": 1665,
      "ĠWhat": 1666,
      "Ġtoget": 1667,
      "Ġtogether": 1668,
      "anced": 1669,
      "Ġreview": 1670,
      "Ġenc": 1671,
      "ĠCol": 1672,
      "arent": 1673,
      "abor": 1674,
      "Ġcult": 1675,
      "mb": 1676,
      "ĠHowever": 1677,
      "Ġenergy": 1678,
      "mit": 1679,
      "Ġcomes": 1680,
      "ember": 1681,
      "Ġnet": 1682,
      "Ġlive": 1683,
      "Ġfollowing": 1684,
      "Ġlarge": 1685,
      "ron": 1686,
      "Ġchildren": 1687,
      "oid": 1688,
      "Ġpri": 1689,
      "ption": 1690,
      "Ġnever": 1691,
      "ĠâĢĶ": 1692,
      "Ġmove": 1693,
      "Ġmind": 1694,
      "gin": 1695,
      "ommend": 1696,
      "conom": 1697,
      "ived": 1698,
      "af": 1699,
      "Ġsever": 1700,
      "ooks": 1701,
      "ĠApp": 1702,
      "ips": 1703,
      "Ġmethod": 1704,
      "Ġpriv": 1705,
      "Ġalong": 1706,
      "ĠEn": 1707,
      "ffic": 1708,
      "Ġhig": 1709,
      "asing": 1710,
      "ĠThat": 1711,
      "Ġold": 1712,
      "ush": 1713,
      "Ġpolic": 1714,
      "ape": 1715,
      "ann": 1716,
      "Ġjour": 1717,
      "Ġpresent": 1718,
      "obal": 1719,
      "Ġpack": 1720,
      "Ġturn": 1721,
      "Ġdra": 1722,
      "min": 1723,
      "Ġexample": 1724,
      "arning": 1725,
      "Ġmembers": 1726,
      "Ġcertain": 1727,
      "'re": 1728,
      "Ġmaintain": 1729,
      "ĠPh": 1730,
      "Ġtimes": 1731,
      "Ġann": 1732,
      "Ġname": 1733,
      "ental": 1734,
      "Ġaway": 1735,
      "Ġcompanies": 1736,
      "ledge": 1737,
      "Ġdigital": 1738,
      "Ġstrong": 1739,
      "Ġvers": 1740,
      "Ġbook": 1741,
      "ats": 1742,
      "ope": 1743,
      "Ġchalleng": 1744,
      "acy": 1745,
      "Ġweek": 1746,
      "Ġseveral": 1747,
      "ĠCont": 1748,
      "Ġshare": 1749,
      "Ġdesigned": 1750,
      "ĠOr": 1751,
      "uro": 1752,
      "side": 1753,
      "Ġsystems": 1754,
      "ĠSu": 1755,
      "Ġmar": 1756,
      "Ġcred": 1757,
      "Ġrecommend": 1758,
      "Ġsecond": 1759,
      "Ġbody": 1760,
      "Ġgot": 1761,
      "ik": 1762,
      "ogn": 1763,
      "Ġocc": 1764,
      "Ġworks": 1765,
      "Ġsol": 1766,
      "Ġtem": 1767,
      "Ġcond": 1768,
      "Ġplayers": 1769,
      "Ġothers": 1770,
      "ift": 1771,
      "ina": 1772,
      "ump": 1773,
      "Ġtrack": 1774,
      "Ġpar": 1775,
      "Ġask": 1776,
      "IN": 1777,
      "ĠLe": 1778,
      "Ġcomfort": 1779,
      "ably": 1780,
      "Ġvalue": 1781,
      "Ġinteg": 1782,
      "onus": 1783,
      "ĠPr": 1784,
      "Ġrisk": 1785,
      "rap": 1786,
      "Ġuser": 1787,
      "outh": 1788,
      "bo": 1789,
      "ĠCan": 1790,
      "ĠComp": 1791,
      "Ġsw": 1792,
      "Ġpa": 1793,
      "avor": 1794,
      "Ġnon": 1795,
      "Ġgrowth": 1796,
      "Ġupd": 1797,
      "imate": 1798,
      "Ġpast": 1799,
      "Ġrelations": 1800,
      "Ġkind": 1801,
      "ON": 1802,
      "rist": 1803,
      "Ġresults": 1804,
      "pro": 1805,
      "cell": 1806,
      "Ġinstall": 1807,
      "Ġach": 1808,
      "Ġdam": 1809,
      "aces": 1810,
      "ases": 1811,
      "Ġfr": 1812,
      "Ġvideo": 1813,
      "Ġcourse": 1814,
      "ocu": 1815,
      "ES": 1816,
      "Ġhaving": 1817,
      "ery": 1818,
      "osp": 1819,
      "Ġsing": 1820,
      "til": 1821,
      "inc": 1822,
      "Ġtools": 1823,
      "Ġ200": 1824,
      "Ġbring": 1825,
      "ĠTra": 1826,
      "Ġfore": 1827,
      "Ġtravel": 1828,
      "Ġmedia": 1829,
      "jor": 1830,
      "iod": 1831,
      "ĠInst": 1832,
      "Ġdue": 1833,
      "Ġmean": 1834,
      "Ġstay": 1835,
      "uck": 1836,
      "Ġrole": 1837,
      "Ġexc": 1838,
      "isc": 1839,
      "AT": 1840,
      "ready": 1841,
      "Ġnecess": 1842,
      "raph": 1843,
      "pecially": 1844,
      "Ġcommon": 1845,
      "app": 1846,
      "Ġfunction": 1847,
      "Ġroom": 1848,
      "Ġdeal": 1849,
      "sel": 1850,
      "arr": 1851,
      "Ġapproach": 1852,
      "Ġgroup": 1853,
      "Ġcountry": 1854,
      "Ġphot": 1855,
      "Ġassist": 1856,
      "Ġcover": 1857,
      "Ġproviding": 1858,
      "âĢ¦": 1859,
      "Ġshort": 1860,
      "ees": 1861,
      "by": 1862,
      "Ġrecord": 1863,
      "Ġarr": 1864,
      "Ġareas": 1865,
      "Ġsafe": 1866,
      "Ġbenefits": 1867,
      "sing": 1868,
      "aff": 1869,
      "When": 1870,
      "resh": 1871,
      "Ġmarketing": 1872,
      "Ġcrit": 1873,
      "Ġamount": 1874,
      "Ġpoint": 1875,
      "Ġtax": 1876,
      "Ġgovernment": 1877,
      "Ġrele": 1878,
      "urance": 1879,
      "ids": 1880,
      "atic": 1881,
      "Ġfurther": 1882,
      "ites": 1883,
      "Ġinnov": 1884,
      "Ġautom": 1885,
      "Ġeconom": 1886,
      "ource": 1887,
      "Ġline": 1888,
      "cent": 1889,
      "Ġcra": 1890,
      "Ġlegal": 1891,
      "Ġmom": 1892,
      "Ġsolutions": 1893,
      "obile": 1894,
      "Ġlow": 1895,
      "Ġproperty": 1896,
      "Ġauthor": 1897,
      "play": 1898,
      "resent": 1899,
      "ters": 1900,
      "ĠAI": 1901,
      "ĠEng": 1902,
      "place": 1903,
      "Ġensuring": 1904,
      "Ġhouse": 1905,
      "ai": 1906,
      "Ġprep": 1907,
      "10": 1908,
      "Ġi": 1909,
      "ides": 1910,
      "itc": 1911,
      "Ġcru": 1912,
      "rop": 1913,
      "Ġexpert": 1914,
      "Ġparticip": 1915,
      "hether": 1916,
      "ones": 1917,
      "not": 1918,
      "Ġallows": 1919,
      "Ġbusinesses": 1920,
      "cle": 1921,
      "elling": 1922,
      "Ġtrust": 1923,
      "Ġhold": 1924,
      "Ġinfl": 1925,
      "Ġprice": 1926,
      "iple": 1927,
      "50": 1928,
      "Ġwhether": 1929,
      "Ġfre": 1930,
      "Ġcoll": 1931,
      "ification": 1932,
      "ged": 1933,
      "Ġsafety": 1934,
      "ura": 1935,
      "Ġchoose": 1936,
      "ustain": 1937,
      "Ġknown": 1938,
      "Ġinit": 1939,
      "roll": 1940,
      "Ġpopular": 1941,
      "Ġalready": 1942,
      "nam": 1943,
      "iate": 1944,
      "Ġselect": 1945,
      "Ġcharact": 1946,
      "ulation": 1947,
      "ken": 1948,
      "ds": 1949,
      "Ġrelationship": 1950,
      "vious": 1951,
      "Ġsearch": 1952,
      "lex": 1953,
      "Ġorig": 1954,
      "ĠFr": 1955,
      "...": 1956,
      "Ġla": 1957,
      "Ġmajor": 1958,
      "Ġheart": 1959,
      "ditional": 1960,
      "Ġseason": 1961,
      "ges": 1962,
      "Ġtraining": 1963,
      "Ġmeas": 1964,
      "Ġoffic": 1965,
      "ĠNo": 1966,
      "load": 1967,
      "Ġside": 1968,
      "Ġcollect": 1969,
      "Ġclear": 1970,
      "ires": 1971,
      "Ġstory": 1972,
      "Ġlog": 1973,
      "Ġdiscuss": 1974,
      "Ġwomen": 1975,
      "irm": 1976,
      "Ġclaim": 1977,
      "room": 1978,
      "ipping": 1979,
      "lement": 1980,
      "Ġpage": 1981,
      "Ġprevent": 1982,
      "Ġespecially": 1983,
      "Ġuntil": 1984,
      "Ġcontribut": 1985,
      "Ġquestions": 1986,
      "Ġsoftware": 1987,
      "Ġphys": 1988,
      "idence": 1989,
      "Ġnatural": 1990,
      "Ġtype": 1991,
      "Ġregard": 1992,
      "Ġweb": 1993,
      "ĠMed": 1994,
      "iable": 1995,
      "Ġdepend": 1996,
      "icated": 1997,
      "Ġrequired": 1998,
      "Ġcut": 1999,
      "Ġhours": 2000,
      "utes": 2001,
      "Ġconditions": 2002,
      "ane": 2003,
      "Ġfit": 2004,
      "Ġdocu": 2005,
      "Ġreceive": 2006,
      "Ġtri": 2007,
      "Ġplease": 2008,
      "Ġconsum": 2009,
      "ĠCent": 2010,
      "opp": 2011,
      "Ġfour": 2012,
      "time": 2013,
      "irt": 2014,
      "Ġbuilding": 2015,
      "Ġknowledge": 2016,
      "Ġ12": 2017,
      "Ġstore": 2018,
      "omes": 2019,
      "ivity": 2020,
      "Ġskills": 2021,
      "ott": 2022,
      "Ġprior": 2023,
      "Ġey": 2024,
      "Ġport": 2025,
      "Ġpie": 2026,
      "Ġestab": 2027,
      "Ġcamp": 2028,
      "ises": 2029,
      "ests": 2030,
      "fully": 2031,
      "Ġenhance": 2032,
      "Ġwide": 2033,
      "Ġbonus": 2034,
      "oura": 2035,
      "come": 2036,
      "Ġhelps": 2037,
      "Ġever": 2038,
      "illed": 2039,
      "Ġhuman": 2040,
      "ply": 2041,
      "Ġce": 2042,
      "Ġbegin": 2043,
      "Ġperiod": 2044,
      "Ġindividuals": 2045,
      "Ġtar": 2046,
      "ilt": 2047,
      "ensive": 2048,
      "rict": 2049,
      "Ġsimple": 2050,
      "Ġfield": 2051,
      "ĠIm": 2052,
      "Ġclients": 2053,
      "Ġ30": 2054,
      "ature": 2055,
      "back": 2056,
      "Ġdetails": 2057,
      "Ġgetting": 2058,
      "ĠGod": 2059,
      "Ġappear": 2060,
      "Ġmach": 2061,
      "Ġonce": 2062,
      "Ġthing": 2063,
      "Ġlearning": 2064,
      "Ġsat": 2065,
      "sw": 2066,
      "Ġprovided": 2067,
      "vert": 2068,
      "OR": 2069,
      "une": 2070,
      "err": 2071,
      "Ġveh": 2072,
      "To": 2073,
      "Ġmil": 2074,
      "Ġeverything": 2075,
      "Ġreason": 2076,
      "Ġnews": 2077,
      "AR": 2078,
      "Ġyourself": 2079,
      "ister": 2080,
      "iful": 2081,
      "xim": 2082,
      "ians": 2083,
      "Ġmess": 2084,
      "rain": 2085,
      "Ġdone": 2086,
      "Ġincrease": 2087,
      "ufact": 2088,
      "Ġpress": 2089,
      "Ġoptim": 2090,
      "Ġant": 2091,
      "Ġamong": 2092,
      "Ġearly": 2093,
      "ivery": 2094,
      "ators": 2095,
      ".\"": 2096,
      "lished": 2097,
      "Ġcosts": 2098,
      "eal": 2099,
      "Ġcard": 2100,
      "tt": 2101,
      "ĠDo": 2102,
      "Ġstudy": 2103,
      "ĠSy": 2104,
      "Ġapplication": 2105,
      "Ġsays": 2106,
      "Ġitems": 2107,
      "Ġenough": 2108,
      "Our": 2109,
      "Ġhy": 2110,
      "19": 2111,
      "Ġdoesn": 2112,
      "Ġunderstanding": 2113,
      "Ġmaterials": 2114,
      "ued": 2115,
      "rodu": 2116,
      "Ġmot": 2117,
      "Ġextra": 2118,
      "ĠAss": 2119,
      "osed": 2120,
      "Ġ18": 2121,
      "ibr": 2122,
      "ĠAm": 2123,
      "Ġded": 2124,
      "ograph": 2125,
      "Ġevents": 2126,
      "hens": 2127,
      "ene": 2128,
      "Ġbal": 2129,
      "Ġbelow": 2130,
      "Ġclose": 2131,
      "gle": 2132,
      "ening": 2133,
      "ĠCar": 2134,
      "indow": 2135,
      "urs": 2136,
      "Ġwa": 2137,
      "go": 2138,
      "aged": 2139,
      "Ġmonths": 2140,
      "Ġlat": 2141,
      "ĠUniversity": 2142,
      "ructure": 2143,
      "ging": 2144,
      "Ġactivities": 2145,
      "Ġsuper": 2146,
      "ford": 2147,
      "ley": 2148,
      "Ġage": 2149,
      "nds": 2150,
      "Ġyoung": 2151,
      "Ġ100": 2152,
      "ler": 2153,
      "Ġvol": 2154,
      "ĠDes": 2155,
      "Ġincludes": 2156,
      "Ġhistory": 2157,
      "Ġcal": 2158,
      "Ġchanges": 2159,
      "ples": 2160,
      "Ġregular": 2161,
      "Ġglobal": 2162,
      "Ġmen": 2163,
      "Ġcreating": 2164,
      "ither": 2165,
      "Ġactually": 2166,
      "Ġjourney": 2167,
      "Ġchoice": 2168,
      "Ġdoing": 2169,
      "Ġregul": 2170,
      "Ġassoci": 2171,
      "Ġways": 2172,
      "cri": 2173,
      "Ġtal": 2174,
      "uation": 2175,
      "Ġsum": 2176,
      "Ġtext": 2177,
      "crib": 2178,
      "Ġsound": 2179,
      "eral": 2180,
      "Ġmusic": 2181,
      "Ġjoin": 2182,
      "Ġreach": 2183,
      "alf": 2184,
      "Ġrecogn": 2185,
      "Ġadditional": 2186,
      "ĠCo": 2187,
      "ĠOne": 2188,
      "Ġsustain": 2189,
      "ruction": 2190,
      "Ġminim": 2191,
      "Ġleft": 2192,
      "ĠChrist": 2193,
      "Ġcrucial": 2194,
      "ĠFl": 2195,
      "ey": 2196,
      "ables": 2197,
      "Ġhot": 2198,
      "olution": 2199,
      "There": 2200,
      "An": 2201,
      "idd": 2202,
      "ames": 2203,
      "ĠMar": 2204,
      "Ġemb": 2205,
      "Ġwr": 2206,
      "ĠEuro": 2207,
      "ĠWor": 2208,
      "ief": 2209,
      "Ġskin": 2210,
      "bling": 2211,
      "Ġoption": 2212,
      "Ġstyle": 2213,
      "most": 2214,
      "Ġstarted": 2215,
      "AN": 2216,
      "unch": 2217,
      "Ġself": 2218,
      "IT": 2219,
      "aps": 2220,
      "Ġcity": 2221,
      "Ġfar": 2222,
      "Ġleast": 2223,
      "Ġaction": 2224,
      "Ġmillion": 2225,
      "Ġrepresent": 2226,
      "Ġcomplex": 2227,
      "just": 2228,
      "Ġeveryone": 2229,
      "Ġface": 2230,
      "Ġnecessary": 2231,
      "Ġtaking": 2232,
      "ouch": 2233,
      "Ġhigher": 2234,
      "ĠSec": 2235,
      "selves": 2236,
      "ĠGu": 2237,
      "Ġtarget": 2238,
      "Ġdiff": 2239,
      "Ġyet": 2240,
      "Ġdeep": 2241,
      "Ġposition": 2242,
      "Ġbeautiful": 2243,
      "ches": 2244,
      "Ġexist": 2245,
      "Ġut": 2246,
      "Ġ15": 2247,
      "Ġopportunity": 2248,
      "Ġsingle": 2249,
      "Ġtreatment": 2250,
      "Ġproblem": 2251,
      "Ġmodern": 2252,
      "Ġaccept": 2253,
      "ull": 2254,
      "ony": 2255,
      "Ġbat": 2256,
      "Ġpromot": 2257,
      "ĠMy": 2258,
      "irc": 2259,
      "Ġsecure": 2260,
      "ĠPart": 2261,
      "aily": 2262,
      "Ġopportunities": 2263,
      "Ġchallenges": 2264,
      "reng": 2265,
      "Ġrequirements": 2266,
      "Ġmultiple": 2267,
      "Ġability": 2268,
      "Ġdeterm": 2269,
      "Ġterms": 2270,
      "Ġcalled": 2271,
      "Ġtot": 2272,
      "Ġlay": 2273,
      "Ġfriends": 2274,
      "based": 2275,
      "Ġoffering": 2276,
      "ww": 2277,
      "ched": 2278,
      "Ġabove": 2279,
      "Ġaf": 2280,
      "atory": 2281,
      "Ġneeded": 2282,
      "ĠDr": 2283,
      "ands": 2284,
      "ĠRep": 2285,
      "Ġapply": 2286,
      "ĠReg": 2287,
      "Ġresources": 2288,
      "Ġloss": 2289,
      "EO": 2290,
      "Ġavoid": 2291,
      "ules": 2292,
      "Ġcredit": 2293,
      "Ġflow": 2294,
      "Ġmanufact": 2295,
      "Ġsize": 2296,
      "Ġexcell": 2297,
      "ĠTH": 2298,
      "Ġdeliver": 2299,
      "Ġmobile": 2300,
      "Ġthird": 2301,
      "EN": 2302,
      "Ġentire": 2303,
      "Ġmedical": 2304,
      "ancing": 2305,
      "Ġoverall": 2306,
      "light": 2307,
      "ux": 2308,
      "icult": 2309,
      "Ġliving": 2310,
      "Ġ.": 2311,
      "par": 2312,
      "Ġnight": 2313,
      "Ġquickly": 2314,
      "Ġleaders": 2315,
      "ĠChe": 2316,
      "Ġlikely": 2317,
      "rect": 2318,
      "ĠNe": 2319,
      "Ġtypes": 2320,
      "Ġexplore": 2321,
      "ipment": 2322,
      "ĠMay": 2323,
      "Ġcontinue": 2324,
      "ilar": 2325,
      "Ġvariety": 2326,
      "Ġready": 2327,
      "ĠWhether": 2328,
      "Ġaffect": 2329,
      "Ġsmo": 2330,
      "ĠWhile": 2331,
      "Ġguid": 2332,
      "ival": 2333,
      "Ġusually": 2334,
      "ĠHere": 2335,
      "Ġengine": 2336,
      "Ġcy": 2337,
      "ference": 2338,
      "ED": 2339,
      "Ġcontract": 2340,
      "Ġsimply": 2341,
      "Ġparent": 2342,
      "Ġhost": 2343,
      "ze": 2344,
      "Ġagree": 2345,
      "Ġconcern": 2346,
      "ĠPre": 2347,
      "Ġinteract": 2348,
      "Ch": 2349,
      "ĠIntern": 2350,
      "Ġlif": 2351,
      "ĠEurope": 2352,
      "use": 2353,
      "ĠFrom": 2354,
      "enn": 2355,
      "face": 2356,
      "Ġdeb": 2357,
      "Ġbit": 2358,
      "Ġmodel": 2359,
      "Ġthroughout": 2360,
      "hers": 2361,
      "new": 2362,
      "Ġprojects": 2363,
      "Ġsens": 2364,
      "isions": 2365,
      "Ġpayment": 2366,
      "Ġsales": 2367,
      "ĠAust": 2368,
      "30": 2369,
      "Ġfast": 2370,
      "Ġtraditional": 2371,
      "Ġeducation": 2372,
      "ĠX": 2373,
      "Ġsomeone": 2374,
      "Ġbelieve": 2375,
      "Ġquestion": 2376,
      "Ġcolor": 2377,
      "angu": 2378,
      "Ġ0": 2379,
      "Ġintegr": 2380,
      "ĠQu": 2381,
      "Ġremain": 2382,
      "Ġz": 2383,
      "oll": 2384,
      "Ġpolicy": 2385,
      "ager": 2386,
      "Ġpurchase": 2387,
      "Ġsubject": 2388,
      "Ġbreak": 2389,
      "Ġleading": 2390,
      "Ġstaff": 2391,
      "Ġdelivery": 2392,
      "Ġachieve": 2393,
      "Ġproblems": 2394,
      "sh": 2395,
      "istic": 2396,
      "Ġstat": 2397,
      "ĠUnited": 2398,
      "Ġansw": 2399,
      "ended": 2400,
      "oud": 2401,
      "izes": 2402,
      "Ġbar": 2403,
      "ring": 2404,
      "ysis": 2405,
      "Ġ2025": 2406,
      "Ġtour": 2407,
      "Ġcaus": 2408,
      "inks": 2409,
      "Ġstreng": 2410,
      "Ġlink": 2411,
      "Ġpartners": 2412,
      "AS": 2413,
      "oved": 2414,
      "hing": 2415,
      "vant": 2416,
      "Ġvia": 2417,
      "Ġrights": 2418,
      "usion": 2419,
      "Ġprofession": 2420,
      "Ġdifficult": 2421,
      "co": 2422,
      "Ġfavor": 2423,
      "Ġefficient": 2424,
      "ĠFe": 2425,
      "Ġrespect": 2426,
      "Ġinform": 2427,
      "nces": 2428,
      "Ġsolution": 2429,
      "rehens": 2430,
      "oints": 2431,
      "iency": 2432,
      "Ġlater": 2433,
      "itut": 2434,
      "Ġnear": 2435,
      "ĠAmerican": 2436,
      "oogle": 2437,
      "inking": 2438,
      "Ġdecision": 2439,
      "ĠEm": 2440,
      "ĠAg": 2441,
      "Ġgiven": 2442,
      "Ġoffice": 2443,
      "ĠCas": 2444,
      "icro": 2445,
      "IS": 2446,
      "itor": 2447,
      "Ġstrategies": 2448,
      "Ġsugg": 2449,
      "AL": 2450,
      "Ġseen": 2451,
      "Ġ'": 2452,
      "Ġthought": 2453,
      "Ġsle": 2454,
      "opy": 2455,
      "ĠMin": 2456,
      "ĠNot": 2457,
      "Ġadded": 2458,
      "Ġlevels": 2459,
      "Ġfamil": 2460,
      "Ġsect": 2461,
      "IC": 2462,
      "Ġinvestment": 2463,
      "With": 2464,
      "Ġimm": 2465,
      "Ġdate": 2466,
      "ĠAcc": 2467,
      "ĠGl": 2468,
      "Ġbud": 2469,
      "irl": 2470,
      "Ġwhole": 2471,
      "Ġinternational": 2472,
      "inos": 2473,
      "Ġinflu": 2474,
      "Ġexpress": 2475,
      "Ġeasily": 2476,
      "Ġwon": 2477,
      "Ġproduction": 2478,
      "Ġcharacter": 2479,
      "Ġfresh": 2480,
      "Ġcollabor": 2481,
      "Ġcou": 2482,
      "Ġaim": 2483,
      "ĠCons": 2484,
      "Ġste": 2485,
      "istration": 2486,
      "Ġhair": 2487,
      "Ġpers": 2488,
      "Ġcannot": 2489,
      "Ġencoura": 2490,
      "Ġadvant": 2491,
      "Ġdom": 2492,
      "head": 2493,
      "Ġrout": 2494,
      "hold": 2495,
      "Ġimplement": 2496,
      "Ġstrategy": 2497,
      "wor": 2498,
      "word": 2499,
      "Ġlic": 2500,
      "ĠAct": 2501,
      "cast": 2502,
      "Ġenter": 2503,
      "Ġattention": 2504,
      "Ġneg": 2505,
      "Ġlonger": 2506,
      "Ġlatest": 2507,
      "Ġfall": 2508,
      "care": 2509,
      "Ġinsurance": 2510,
      "Ġfive": 2511,
      "Ġord": 2512,
      "Ġcele": 2513,
      "Ġdidn": 2514,
      "nding": 2515,
      "uff": 2516,
      "Ġrequest": 2517,
      "ĠAfter": 2518,
      "Ġ24": 2519,
      "ĠUK": 2520,
      "iring": 2521,
      "Ġreduce": 2522,
      "Ġanaly": 2523,
      "ĠÂ": 2524,
      "Ġemot": 2525,
      "Ġphone": 2526,
      "Ġminutes": 2527,
      "Ġfoot": 2528,
      "Ġmatter": 2529,
      "Ġforward": 2530,
      "Ġtell": 2531,
      "arant": 2532,
      "ample": 2533,
      "erc": 2534,
      "sy": 2535,
      "ercial": 2536,
      "Ġfail": 2537,
      "atives": 2538,
      "Ġcomput": 2539,
      "ĠServices": 2540,
      "Ġmiss": 2541,
      "though": 2542,
      "Ġparty": 2543,
      "Ġdirectly": 2544,
      "Ġcapt": 2545,
      "ĠSome": 2546,
      "Ġcontain": 2547,
      "Ġnetwork": 2548,
      "Ġmag": 2549,
      "rehensive": 2550,
      "ĠAut": 2551,
      "Ġprivate": 2552,
      "Ġimmed": 2553,
      "pose": 2554,
      "book": 2555,
      "Ġpractice": 2556,
      "gest": 2557,
      "Ġprob": 2558,
      "Ġpolit": 2559,
      "Ġinsp": 2560,
      "Ġsense": 2561,
      "astic": 2562,
      "ĠMe": 2563,
      "aving": 2564,
      "Ġabs": 2565,
      "usive": 2566,
      "Ġemployees": 2567,
      "ĠState": 2568,
      "Ġgoals": 2569,
      "Ġcame": 2570,
      "Ġguide": 2571,
      "Ġconsist": 2572,
      "Ġofficial": 2573,
      "emic": 2574,
      "ecut": 2575,
      "ox": 2576,
      "Ġfeed": 2577,
      "Ġemerg": 2578,
      "avig": 2579,
      "Ġprec": 2580,
      "gra": 2581,
      "hest": 2582,
      "Ġtas": 2583,
      "Ġcook": 2584,
      "Ġcases": 2585,
      "ĠAb": 2586,
      "orpor": 2587,
      "iet": 2588,
      "Ġblack": 2589,
      "verage": 2590,
      "ĠPer": 2591,
      "Ġred": 2592,
      "ID": 2593,
      "Ġinside": 2594,
      "ume": 2595,
      "Ġissue": 2596,
      "Ġisn": 2597,
      "Ġassess": 2598,
      "iday": 2599,
      "Ġpositive": 2600,
      "ĠHealth": 2601,
      "icles": 2602,
      "Ġblog": 2603,
      "Ġcause": 2604,
      "Ġet": 2605,
      "Ġ[": 2606,
      "rast": 2607,
      "Ġgen": 2608,
      "ological": 2609,
      "Ġcirc": 2610,
      "Ġrev": 2611,
      "Ġtouch": 2612,
      "Ġconvers": 2613,
      "Ġarticle": 2614,
      "Ġ2024": 2615,
      "Ġtook": 2616,
      "Ġrelated": 2617,
      "Ġwond": 2618,
      "Ġorganiz": 2619,
      "Ġdaily": 2620,
      "Ġdog": 2621,
      "Ġpercent": 2622,
      "Ġwatch": 2623,
      "Ġconsult": 2624,
      "Ġfeature": 2625,
      "Ġexperiences": 2626,
      "Ġplaying": 2627,
      "Ġdest": 2628,
      "Ġprograms": 2629,
      "Ġsatis": 2630,
      "Ġstream": 2631,
      "itable": 2632,
      "Ġcreated": 2633,
      "ceed": 2634,
      "Ġinj": 2635,
      "âĢĵ": 2636,
      "Ġprim": 2637,
      "//": 2638,
      "Ġlocation": 2639,
      "Ġinternet": 2640,
      "Ġrate": 2641,
      "elt": 2642,
      "irit": 2643,
      "Ġreflect": 2644,
      "Ġtakes": 2645,
      "Ġtypically": 2646,
      ".,": 2647,
      "oon": 2648,
      "mber": 2649,
      "orage": 2650,
      "augh": 2651,
      "Ġlo": 2652,
      "anks": 2653,
      "ĠCal": 2654,
      "Ġobject": 2655,
      "Ġmoment": 2656,
      "RE": 2657,
      "ohn": 2658,
      "Ġsent": 2659,
      "Ġlower": 2660,
      "Ġeither": 2661,
      "Ġaccording": 2662,
      "AC": 2663,
      "ĠAf": 2664,
      "term": 2665,
      "aign": 2666,
      "Ġdevice": 2667,
      "Ġdrive": 2668,
      "overed": 2669,
      "het": 2670,
      "Ġidea": 2671,
      "'ll": 2672,
      "ened": 2673,
      "Ġphysical": 2674,
      "Ġseries": 2675,
      "Ġground": 2676,
      "Ġprevious": 2677,
      "reet": 2678,
      "Ġactive": 2679,
      "ĠGoogle": 2680,
      "Ġdamage": 2681,
      "Ġhighly": 2682,
      "Ġidentify": 2683,
      "ĠPol": 2684,
      "Ġattract": 2685,
      "ried": 2686,
      "Ðµ": 2687,
      "Ġworth": 2688,
      "tenance": 2689,
      "ĠCO": 2690,
      "Ġmatch": 2691,
      "On": 2692,
      "Ġequipment": 2693,
      "ĠSm": 2694,
      "Ġoil": 2695,
      "Ġsimilar": 2696,
      "illing": 2697,
      "cer": 2698,
      "iverse": 2699,
      "aced": 2700,
      "ties": 2701,
      "Ġhowever": 2702,
      "etimes": 2703,
      "Ġapplications": 2704,
      "yond": 2705,
      "Ġfram": 2706,
      ",\"": 2707,
      "Ġensures": 2708,
      "Ġblock": 2709,
      "Ġgain": 2710,
      "Ex": 2711,
      "itch": 2712,
      "ĠInt": 2713,
      "umb": 2714,
      "Ġdepos": 2715,
      "Ġexcept": 2716,
      "Ġbrow": 2717,
      "Ġhol": 2718,
      "'ve": 2719,
      "pri": 2720,
      "reme": 2721,
      "Ġfactors": 2722,
      "ming": 2723,
      "Ġcert": 2724,
      "Ġtable": 2725,
      "Ġfront": 2726,
      "Ġcondition": 2727,
      "Ġsess": 2728,
      "Ġstress": 2729,
      "Ġresid": 2730,
      "Ġ11": 2731,
      "Ġsun": 2732,
      "ison": 2733,
      "Ġcareer": 2734,
      "Ġsoon": 2735,
      "Ġbuilt": 2736,
      "Ġrepair": 2737,
      "ublic": 2738,
      "Ġallowing": 2739,
      "iation": 2740,
      "ĠInc": 2741,
      "ada": 2742,
      "Ġcritical": 2743,
      "ops": 2744,
      "://": 2745,
      "Ġstandard": 2746,
      "Ġlangu": 2747,
      "At": 2748,
      "Ġplanning": 2749,
      "So": 2750,
      "icate": 2751,
      "ĠCity": 2752,
      "val": 2753,
      "aches": 2754,
      "He": 2755,
      "Ġtaken": 2756,
      "Ġsell": 2757,
      "Ġcollection": 2758,
      "iol": 2759,
      "erve": 2760,
      "ĠPres": 2761,
      "epend": 2762,
      "Ġlives": 2763,
      "Ġhope": 2764,
      "erous": 2765,
      "Ġfinal": 2766,
      "like": 2767,
      "Ġnature": 2768,
      "Ġcry": 2769,
      "Ġbudget": 2770,
      "att": 2771,
      "earch": 2772,
      "ĠUs": 2773,
      "Ġprogress": 2774,
      "Ġcountries": 2775,
      "ĠAustral": 2776,
      "Ġbehind": 2777,
      "ĠDep": 2778,
      "Ġintrodu": 2779,
      "Ġbed": 2780,
      "Ġbehav": 2781,
      "asons": 2782,
      "Ġroad": 2783,
      "Ġincreasing": 2784,
      "Ġrecent": 2785,
      "ĠBu": 2786,
      "where": 2787,
      "Ġoriginal": 2788,
      "Ġgaming": 2789,
      "Ġshipping": 2790,
      "Ġsmart": 2791,
      "Ġprem": 2792,
      "Ġtalk": 2793,
      "Pro": 2794,
      "Ġaspect": 2795,
      "Ġleave": 2796,
      "org": 2797,
      "ole": 2798,
      "akes": 2799,
      "Ġoutside": 2800,
      "rec": 2801,
      "Ġpick": 2802,
      "Ġ50": 2803,
      "Ġadjust": 2804,
      "Ġmaxim": 2805,
      "Ġhon": 2806,
      "onst": 2807,
      "Ġtail": 2808,
      "Ġaudience": 2809,
      "Ġupon": 2810,
      "Ġanim": 2811,
      "Ġmanage": 2812,
      "Ġresponsible": 2813,
      "Ġexact": 2814,
      "Ġdocument": 2815,
      "standing": 2816,
      "Ġgeneral": 2817,
      "Ġsites": 2818,
      "Ġrather": 2819,
      "12": 2820,
      "inary": 2821,
      "era": 2822,
      "Ġcomprehensive": 2823,
      "Ġcommunication": 2824,
      "Ġconven": 2825,
      "Ġwel": 2826,
      "Ġregarding": 2827,
      "Ġexcellent": 2828,
      "urch": 2829,
      "aur": 2830,
      "Ġmember": 2831,
      "Ġqual": 2832,
      "But": 2833,
      "Ġcell": 2834,
      "Ġthr": 2835,
      "Ġpractices": 2836,
      "Ġ14": 2837,
      "Ġaware": 2838,
      "Ġreceived": 2839,
      "oost": 2840,
      "put": 2841,
      "One": 2842,
      "Ġwent": 2843,
      "Ġshall": 2844,
      "Ġalmost": 2845,
      "Ġgambling": 2846,
      "rew": 2847,
      "Ġbank": 2848,
      "Ġpoints": 2849,
      "ĠDis": 2850,
      "ĠOff": 2851,
      "Ad": 2852,
      "ĠHis": 2853,
      "ĠService": 2854,
      "hib": 2855,
      "Ġorganization": 2856,
      "Ġcoun": 2857,
      "Ġweight": 2858,
      "ĠStates": 2859,
      "Ġsubs": 2860,
      "Ġstra": 2861,
      "Ġguarant": 2862,
      "Ġpict": 2863,
      "arl": 2864,
      "Ġanything": 2865,
      "Ġsports": 2866,
      "Ġtrue": 2867,
      "Ġver": 2868,
      "Ġslot": 2869,
      "tings": 2870,
      "ground": 2871,
      "Ġprotection": 2872,
      "Ġcode": 2873,
      "ĠSouth": 2874,
      "Ġdownload": 2875,
      "Ġlimited": 2876,
      "ĠNational": 2877,
      "Ġsche": 2878,
      "ball": 2879,
      "Ġdemand": 2880,
      "Ġplans": 2881,
      "ĠPe": 2882,
      "Ġprofessionals": 2883,
      "son": 2884,
      "ĠCount": 2885,
      "Ġtit": 2886,
      "Ġpatients": 2887,
      "lege": 2888,
      "Ġparticularly": 2889,
      "ditionally": 2890,
      "Ġsuccessful": 2891,
      "Ġcoming": 2892,
      "ĠHigh": 2893,
      "Ġill": 2894,
      "quality": 2895,
      "Ġplatforms": 2896,
      "Ġdou": 2897,
      "ĠFin": 2898,
      "ĠIndia": 2899,
      "Ġcampaign": 2900,
      "Ġscreen": 2901,
      "Ġadmin": 2902,
      "And": 2903,
      "Ġearn": 2904,
      "Ġsteps": 2905,
      "Ġplant": 2906,
      "Ġble": 2907,
      "Ġflex": 2908,
      "Ġnote": 2909,
      "Ġrates": 2910,
      "friend": 2911,
      "Ġassociated": 2912,
      "Ġanalysis": 2913,
      "ĠNet": 2914,
      "Ġwriting": 2915,
      "Ġseem": 2916,
      "Ġfire": 2917,
      "abilities": 2918,
      "uge": 2919,
      "Ġclient": 2920,
      "ung": 2921,
      "Ġtowards": 2922,
      "oph": 2923,
      "wise": 2924,
      "force": 2925,
      "Ġgoal": 2926,
      "Ġmor": 2927,
      "Ġinvolved": 2928,
      "ĠStud": 2929,
      "Ġparts": 2930,
      "Ġmethods": 2931,
      "Al": 2932,
      "ĠSchool": 2933,
      "right": 2934,
      "ĠCasino": 2935,
      "Ġdevices": 2936,
      "onse": 2937,
      "aching": 2938,
      "Ġcash": 2939,
      "Ġpath": 2940,
      "ications": 2941,
      "Ġstock": 2942,
      "Ġnavig": 2943,
      "Ġthemselves": 2944,
      "ades": 2945,
      "su": 2946,
      "Ġvehicle": 2947,
      "Ġbase": 2948,
      "ha": 2949,
      "Ġsuggest": 2950,
      "Ġstandards": 2951,
      "ĠDon": 2952,
      "iques": 2953,
      "Ġbeyond": 2954,
      "ĠPlease": 2955,
      "Ġshows": 2956,
      "hel": 2957,
      "ober": 2958,
      "Ġinsights": 2959,
      "Ġcelebr": 2960,
      "ana": 2961,
      "ologies": 2962,
      "uable": 2963,
      "Ġfully": 2964,
      "Ġsupply": 2965,
      "Ġtrying": 2966,
      "ĠWorld": 2967,
      "Ġwindow": 2968,
      "Ġspeed": 2969,
      "ferences": 2970,
      "Ġefficiency": 2971,
      "Ġideal": 2972,
      "'m": 2973,
      "ille": 2974,
      "ĠJohn": 2975,
      "Ġquite": 2976,
      "empt": 2977,
      "Ġcorrect": 2978,
      "Ġchance": 2979,
      "Ġpan": 2980,
      "Ġadvanced": 2981,
      "ĠBusiness": 2982,
      "Ġcool": 2983,
      "hood": 2984,
      "gy": 2985,
      "Ġheav": 2986,
      "Ġpaper": 2987,
      "Ġhealthy": 2988,
      "Ġ16": 2989,
      "Ġcommitment": 2990,
      "Ġsty": 2991,
      "Ġbroad": 2992,
      "pre": 2993,
      "Ġdep": 2994,
      "Ġwhite": 2995,
      "Ġswe": 2996,
      "Ã©": 2997,
      "Ġones": 2998,
      "Ġdisplay": 2999,
      "Ġgrowing": 3000,
      "Ġrunning": 3001,
      "Ġtotal": 3002,
      "Ġaltern": 3003,
      "Ġtransform": 3004,
      "Ġconnection": 3005,
      "Ġelse": 3006,
      "ĠUse": 3007,
      "Ġideas": 3008,
      "Ġmix": 3009,
      "Ġfilm": 3010,
      "Ġfrequ": 3011,
      "Ġcam": 3012,
      "Ġple": 3013,
      "ude": 3014,
      "Ġur": 3015,
      "ĠNorth": 3016,
      "Ġcommercial": 3017,
      "ĠPlay": 3018,
      "Ġhappy": 3019,
      "Ġexpertise": 3020,
      "ĠAre": 3021,
      "Ġfa": 3022,
      "Ġeffort": 3023,
      "Ġ/": 3024,
      "aries": 3025,
      "Ġwords": 3026,
      "Ġdraw": 3027,
      "alls": 3028,
      "Ġculture": 3029,
      "Ġdy": 3030,
      "Ġcasinos": 3031,
      "Ġweeks": 3032,
      "Ġbi": 3033,
      "ĠBo": 3034,
      "Ġnational": 3035,
      "Ġmachine": 3036,
      "Ġincluded": 3037,
      "Ġlandsc": 3038,
      "itation": 3039,
      "ĠMore": 3040,
      "ĠMarket": 3041,
      "Ġsmooth": 3042,
      "Ġdefin": 3043,
      "OU": 3044,
      "Ġmass": 3045,
      "Ġlab": 3046,
      "Ġcurrently": 3047,
      "Ġconduct": 3048,
      "ĠJust": 3049,
      "Ġpattern": 3050,
      "vest": 3051,
      "Ġfig": 3052,
      "icing": 3053,
      "tery": 3054,
      "Ġcompon": 3055,
      "Ġversion": 3056,
      "oms": 3057,
      "Ġutil": 3058,
      "ĠAN": 3059,
      "agn": 3060,
      "Ġanyone": 3061,
      "Ġitself": 3062,
      "Ġhtt": 3063,
      "Ġproced": 3064,
      "Ġrequires": 3065,
      "ĠYork": 3066,
      "Ġbenefit": 3067,
      "Ġdise": 3068,
      "urer": 3069,
      "Ġsave": 3070,
      "Ġbox": 3071,
      "Ġult": 3072,
      "Ġreliable": 3073,
      "Ġboard": 3074,
      "ese": 3075,
      "Ġmaintenance": 3076,
      "Ġclick": 3077,
      "Ġprin": 3078,
      "dict": 3079,
      "Ġwarm": 3080,
      "ĠProf": 3081,
      "Ġarch": 3082,
      "Ġeffectively": 3083,
      "Ġsend": 3084,
      "Ġwalk": 3085,
      "Ġestablish": 3086,
      "Ġblood": 3087,
      "Ġdedicated": 3088,
      "istics": 3089,
      "Ġdecisions": 3090,
      "Ġexperienced": 3091,
      "Ġpurpose": 3092,
      "ided": 3093,
      "Ġ25": 3094,
      "Ġago": 3095,
      "aly": 3096,
      "Ġhelping": 3097,
      "Ġsource": 3098,
      "OS": 3099,
      "Ġtold": 3100,
      "Ġhalf": 3101,
      "uel": 3102,
      "opping": 3103,
      "Ġsex": 3104,
      "Ġcand": 3105,
      "Ġattack": 3106,
      "Ġadvice": 3107,
      "Ġhands": 3108,
      "Ġharm": 3109,
      "Ġdeg": 3110,
      "Ġasked": 3111,
      "Ġeconomic": 3112,
      "ĠPar": 3113,
      "ĠUp": 3114,
      "Ġ13": 3115,
      "acc": 3116,
      "arth": 3117,
      "Ġorganizations": 3118,
      "Ġsubst": 3119,
      "gram": 3120,
      "ĠDay": 3121,
      "Ġpo": 3122,
      "Ġ2023": 3123,
      "Ġstorage": 3124,
      "Ġoperations": 3125,
      "Ġpowerful": 3126,
      "raw": 3127,
      "Ġdry": 3128,
      "wh": 3129,
      "chan": 3130,
      "Ġtips": 3131,
      "Ġsix": 3132,
      "Ġsil": 3133,
      "Ġfair": 3134,
      "Ġrent": 3135,
      "ishing": 3136,
      "Ġgroups": 3137,
      "Ġgives": 3138,
      "Ġclos": 3139,
      "board": 3140,
      "Ġtast": 3141,
      "Ġstop": 3142,
      "azing": 3143,
      "ederal": 3144,
      "Ġheld": 3145,
      "Ġdistribut": 3146,
      "enge": 3147,
      "Ġgiving": 3148,
      "15": 3149,
      "Ġing": 3150,
      "aling": 3151,
      "Ġobtain": 3152,
      "Ġstudent": 3153,
      "Ġadapt": 3154,
      "free": 3155,
      "oming": 3156,
      "Ġmeaning": 3157,
      "Ġspeak": 3158,
      "Ġetc": 3159,
      "ek": 3160,
      "reg": 3161,
      "While": 3162,
      "ĠData": 3163,
      "Ġtransport": 3164,
      "Ġbad": 3165,
      "Ġviol": 3166,
      "Ġpartner": 3167,
      "Ġfavorite": 3168,
      "Ġspirit": 3169,
      "ĠCommun": 3170,
      "ĠArt": 3171,
      "ned": 3172,
      "change": 3173,
      "Ġeval": 3174,
      "ĠTrans": 3175,
      "iles": 3176,
      "Ġbalance": 3177,
      "All": 3178,
      "idered": 3179,
      "Ġrelevant": 3180,
      "cription": 3181,
      "vey": 3182,
      "ipped": 3183,
      "Ġsituation": 3184,
      "ĠCustom": 3185,
      "iding": 3186,
      "rel": 3187,
      "ales": 3188,
      "ĠIns": 3189,
      "Ġprefer": 3190,
      "Ġtransfer": 3191,
      "Ġthreat": 3192,
      "Ġpiece": 3193,
      "ĠTechn": 3194,
      "AM": 3195,
      "Ġsetting": 3196,
      "Ġfile": 3197,
      "Ġnorm": 3198,
      "Ġprobably": 3199,
      "25": 3200,
      "icip": 3201,
      "oes": 3202,
      "Ġalign": 3203,
      "Ġdescrib": 3204,
      "Ġoutd": 3205,
      "Ġrad": 3206,
      "Ġexerc": 3207,
      "mission": 3208,
      "Ġteams": 3209,
      "Ġtransact": 3210,
      "Ġresponse": 3211,
      "ĠSoc": 3212,
      "ĠRed": 3213,
      "ĠKe": 3214,
      "Ġappropri": 3215,
      "year": 3216,
      "ĠVal": 3217,
      "Ġmeeting": 3218,
      "wide": 3219,
      "ams": 3220,
      "ĠLet": 3221,
      "Ġparents": 3222,
      "ION": 3223,
      "ĠTw": 3224,
      "ĠNow": 3225,
      "Ġnut": 3226,
      "rug": 3227,
      "Ġcomfortable": 3228,
      "ctions": 3229,
      "Ġserious": 3230,
      "ension": 3231,
      "Ġcat": 3232,
      "Ġhit": 3233,
      "eed": 3234,
      "Ġlanguage": 3235,
      "EC": 3236,
      "Ġwanted": 3237,
      "Ġefforts": 3238,
      "Ġeasier": 3239,
      "Ġeye": 3240,
      "Ġprices": 3241,
      "Ġsection": 3242,
      "Ġsignificantly": 3243,
      "Ġafford": 3244,
      "idge": 3245,
      "Ġadvert": 3246,
      "amless": 3247,
      "Ġexisting": 3248,
      "eter": 3249,
      "ĠBr": 3250,
      "ios": 3251,
      "ĠAfric": 3252,
      "Ġobs": 3253,
      "Ġdeath": 3254,
      "Ġfix": 3255,
      "Ġreplace": 3256,
      "oices": 3257,
      "ously": 3258,
      "Ġsepar": 3259,
      "Ġcourt": 3260,
      "Sh": 3261,
      "roup": 3262,
      "By": 3263,
      "Ġowners": 3264,
      "overy": 3265,
      "11": 3266,
      "Ġprocesses": 3267,
      "Ġregion": 3268,
      "Ġinitial": 3269,
      "Ġconstruction": 3270,
      "Ġ17": 3271,
      "Ġeffects": 3272,
      "Ġmodels": 3273,
      "ĠDesign": 3274,
      "Ġwal": 3275,
      "antly": 3276,
      "liance": 3277,
      "ING": 3278,
      "ĠTHE": 3279,
      "ibly": 3280,
      "Ġemp": 3281,
      "Ġcopy": 3282,
      "Ġnothing": 3283,
      "ĠSw": 3284,
      "Ġconcept": 3285,
      "ression": 3286,
      "ought": 3287,
      "mbol": 3288,
      "Ġ199": 3289,
      "Ġremember": 3290,
      "Ġactivity": 3291,
      "Ġtemper": 3292,
      "ellow": 3293,
      "Ġserve": 3294,
      "clusive": 3295,
      "ĠAir": 3296,
      "Ġincreased": 3297,
      "Ġsleep": 3298,
      "ĠDirect": 3299,
      "ĠSk": 3300,
      "Ġboost": 3301,
      "Ġelectric": 3302,
      "Ġdiverse": 3303,
      "Ġgirl": 3304,
      "ares": 3305,
      "ashion": 3306,
      "Ġep": 3307,
      "Ġindepend": 3308,
      "ĠHer": 3309,
      "ruit": 3310,
      "Ġrob": 3311,
      "Ġcontinu": 3312,
      "Ġdream": 3313,
      "Ġexperts": 3314,
      "Ġround": 3315,
      "Ġplayer": 3316,
      "Ġreading": 3317,
      "Ġkids": 3318,
      "Ġexpand": 3319,
      "Ġconsidered": 3320,
      "Ġbur": 3321,
      "Ġinstead": 3322,
      "Ġwar": 3323,
      "Ġincome": 3324,
      "dom": 3325,
      "Ġrespond": 3326,
      "iability": 3327,
      "Ġtim": 3328,
      "Ġdeposit": 3329,
      "Ġitem": 3330,
      "Ġtechniques": 3331,
      "Ġelements": 3332,
      "OT": 3333,
      "Ġrules": 3334,
      "enses": 3335,
      "Ġworked": 3336,
      "ĠAc": 3337,
      "Ġsummer": 3338,
      "ĠOut": 3339,
      "Ġdiv": 3340,
      "Ġrelease": 3341,
      "ĠPresident": 3342,
      "ster": 3343,
      "ĠExper": 3344,
      "Ġwonder": 3345,
      "ĠPark": 3346,
      "Ġsn": 3347,
      "Ġpret": 3348,
      "name": 3349,
      "Ġtruly": 3350,
      "Ġcomputer": 3351,
      "Ġstrength": 3352,
      "Ġstru": 3353,
      "pite": 3354,
      "Ġdifference": 3355,
      "ĠEvery": 3356,
      "Ġwood": 3357,
      "Ġdoor": 3358,
      "nal": 3359,
      "rupt": 3360,
      "my": 3361,
      "ĠPay": 3362,
      "Ġpeace": 3363,
      "lim": 3364,
      "Ġpaid": 3365,
      "ences": 3366,
      "Ġcleaning": 3367,
      "ĠBlack": 3368,
      "dule": 3369,
      "Ġexpected": 3370,
      "oosing": 3371,
      "Ġgard": 3372,
      "Be": 3373,
      "ronic": 3374,
      "ĠEd": 3375,
      "Ġfirm": 3376,
      "rapy": 3377,
      "hent": 3378,
      "Ġdiscover": 3379,
      "Ġcommunities": 3380,
      "ĠCompany": 3381,
      "These": 3382,
      "Ġuses": 3383,
      "sequ": 3384,
      "Ġrecently": 3385,
      "friendly": 3386,
      "Ġfamilies": 3387,
      "ĠOnline": 3388,
      "bon": 3389,
      "Ġsus": 3390,
      "zy": 3391,
      "Ġcateg": 3392,
      "Ġseamless": 3393,
      "Ġlocated": 3394,
      "Ġslow": 3395,
      "Ġinstitut": 3396,
      "Ġvaluable": 3397,
      "ĠRem": 3398,
      "Ġheat": 3399,
      "race": 3400,
      "Ġextreme": 3401,
      "Ġstri": 3402,
      "ĠRec": 3403,
      "Ġlock": 3404,
      "Ġadop": 3405,
      "prise": 3406,
      "Ġgoes": 3407,
      "itect": 3408,
      "itchen": 3409,
      "Ġreve": 3410,
      "Ġreasons": 3411,
      "Ġseeking": 3412,
      "Ġtechnical": 3413,
      "ached": 3414,
      "Ġwritten": 3415,
      "rate": 3416,
      "eria": 3417,
      "Ġcreative": 3418,
      "Ġfab": 3419,
      "Ġexecut": 3420,
      "ĠSim": 3421,
      "ĠMany": 3422,
      "Ġinvestig": 3423,
      "Ġhosp": 3424,
      "iately": 3425,
      "ĠJune": 3426,
      "Ġlooks": 3427,
      "oe": 3428,
      "itute": 3429,
      "Ġcarry": 3430,
      "Ġgreen": 3431,
      "arter": 3432,
      "irth": 3433,
      "Ġpressure": 3434,
      "Ġstarting": 3435,
      "Ġstories": 3436,
      "iff": 3437,
      "Ġbeauty": 3438,
      "Ġtesting": 3439,
      "ĠFree": 3440,
      "Ġiniti": 3441,
      "off": 3442,
      "Ġvisual": 3443,
      "omp": 3444,
      "Ġimage": 3445,
      "arily": 3446,
      "Ġaccur": 3447,
      "Ġhealthcare": 3448,
      "Ġhistor": 3449,
      "Ġshared": 3450,
      "Ġestate": 3451,
      "Ġimages": 3452,
      "Ġsymbol": 3453,
      "ST": 3454,
      "Ġlost": 3455,
      "ule": 3456,
      "oyal": 3457,
      "Ġsym": 3458,
      "ĠInternational": 3459,
      "Ġpatient": 3460,
      "ĠGener": 3461,
      "Ġsubmit": 3462,
      "aby": 3463,
      "Ġinnovative": 3464,
      "cks": 3465,
      "Ġpolitical": 3466,
      "Ġapprec": 3467,
      "Ġvirt": 3468,
      "Ġspot": 3469,
      "Ġbecame": 3470,
      "Ġ40": 3471,
      "ĠChina": 3472,
      "Why": 3473,
      "ĠDevelop": 3474,
      "Ġrisks": 3475,
      "ersonal": 3476,
      "fl": 3477,
      "Ġlux": 3478,
      "ĠCenter": 3479,
      "lig": 3480,
      "Ġcompletely": 3481,
      "aves": 3482,
      "ancy": 3483,
      "ĠHouse": 3484,
      "ĠJan": 3485,
      "Ġmention": 3486,
      "itary": 3487,
      "Ġnotice": 3488,
      "Ġchann": 3489,
      "Ġacqu": 3490,
      "imin": 3491,
      "ups": 3492,
      "Ġund": 3493,
      "ĠMost": 3494,
      "ĠRuss": 3495,
      "Ġdemonst": 3496,
      "Ġimportance": 3497,
      "Ġexplain": 3498,
      "sych": 3499,
      "Ġstage": 3500,
      "Ġcouple": 3501,
      "ĠAmerica": 3502,
      "overn": 3503,
      "Ġopp": 3504,
      "ĠIN": 3505,
      "Ġanswer": 3506,
      "Ġrelax": 3507,
      "ĠJu": 3508,
      "Ġappeal": 3509,
      "Ġ#": 3510,
      "ĠMr": 3511,
      "Ġbus": 3512,
      "Ġrelationships": 3513,
      "nect": 3514,
      "Ġfra": 3515,
      "cel": 3516,
      "etic": 3517,
      "Ġmessage": 3518,
      "Ġinnovation": 3519,
      "Ġ2020": 3520,
      "Ġrich": 3521,
      "Ġtraffic": 3522,
      "ipe": 3523,
      "Ġled": 3524,
      "ET": 3525,
      "Ġaverage": 3526,
      "ctor": 3527,
      "iny": 3528,
      "ĠCle": 3529,
      "Ġfight": 3530,
      "Ġmulti": 3531,
      "ĠBar": 3532,
      "ellig": 3533,
      "Ġfloor": 3534,
      "Ġfarm": 3535,
      "Ġgradu": 3536,
      "Ġmis": 3537,
      "ĠGet": 3538,
      "Ġcorpor": 3539,
      "den": 3540,
      "Ġpolicies": 3541,
      "ĠSystem": 3542,
      "ĠSl": 3543,
      "Ġsqu": 3544,
      "ags": 3545,
      "ĠCour": 3546,
      "Ġimmediately": 3547,
      "bor": 3548,
      "ffee": 3549,
      "Ġdeveloped": 3550,
      "Ġcross": 3551,
      "Ġadvance": 3552,
      "Ġhuge": 3553,
      "Ġlack": 3554,
      "na": 3555,
      "ĠLaw": 3556,
      "Ġcrypt": 3557,
      "Ġlimit": 3558,
      "Ġcharge": 3559,
      "des": 3560,
      "ĠAv": 3561,
      "oke": 3562,
      "ĠCounty": 3563,
      "Ġwebsites": 3564,
      "ĠAssoci": 3565,
      "Ġlate": 3566,
      "Ġdura": 3567,
      "aks": 3568,
      "Ġdynam": 3569,
      "ĠDel": 3570,
      "Cl": 3571,
      "more": 3572,
      "Ġselection": 3573,
      "Ġgold": 3574,
      "Ġstates": 3575,
      "odes": 3576,
      "Ġattend": 3577,
      "vis": 3578,
      "hips": 3579,
      "iddle": 3580,
      "Ġremains": 3581,
      "Ġchallenge": 3582,
      "Ġadvantage": 3583,
      "Ġstruct": 3584,
      "âĢ¢": 3585,
      "Ġoffered": 3586,
      "Ġerr": 3587,
      "Ġbooks": 3588,
      "Ġjud": 3589,
      "Ġprocessing": 3590,
      "atically": 3591,
      "Ġfees": 3592,
      "ecause": 3593,
      "Ġsometimes": 3594,
      "Ġsustainable": 3595,
      "Ġthinking": 3596,
      "Ġtrade": 3597,
      "Ġwear": 3598,
      "Ġingred": 3599,
      "ĠOf": 3600,
      "Ġstructure": 3601,
      "encies": 3602,
      "Ġ2022": 3603,
      "pril": 3604,
      "cil": 3605,
      "Ġorders": 3606,
      "Ġunc": 3607,
      "Ġdepart": 3608,
      "lying": 3609,
      "Ġentertain": 3610,
      "Ġrepl": 3611,
      "ffect": 3612,
      "PS": 3613,
      "Ġpropos": 3614,
      "Ġadvent": 3615,
      "Ġmark": 3616,
      "artment": 3617,
      "Ġhomes": 3618,
      "Ġload": 3619,
      "itely": 3620,
      "rest": 3621,
      "ĠWest": 3622,
      "overs": 3623,
      "Ġdriving": 3624,
      "Ġapart": 3625,
      "ĠEach": 3626,
      "ĠGroup": 3627,
      "Ġamazing": 3628,
      "going": 3629,
      "Ġattempt": 3630,
      "Ġsurround": 3631,
      "Ġpassion": 3632,
      "ĠPa": 3633,
      "Ġmechan": 3634,
      "Ġcultural": 3635,
      "Ġten": 3636,
      "enty": 3637,
      "ĠProgram": 3638,
      "Ġappropriate": 3639,
      "rought": 3640,
      "Ġinformed": 3641,
      "cul": 3642,
      "Ġengagement": 3643,
      "olute": 3644,
      "Ġroll": 3645,
      "ray": 3646,
      "Ġbreat": 3647,
      "Ġmental": 3648,
      "Ġvision": 3649,
      "Ġprinc": 3650,
      "haps": 3651,
      "Ġhandle": 3652,
      "bit": 3653,
      "ðŁ": 3654,
      "Ġassistance": 3655,
      "uary": 3656,
      "Ġvalues": 3657,
      "Ġbetting": 3658,
      "Ġahead": 3659,
      "ĠTheir": 3660,
      "ĠOver": 3661,
      "Ġmoving": 3662,
      "Ġinterview": 3663,
      "ĠMod": 3664,
      "ext": 3665,
      "mon": 3666,
      "Ġreput": 3667,
      "Ġprovider": 3668,
      "ĠWill": 3669,
      "olf": 3670,
      "coming": 3671,
      "Ġbegan": 3672,
      "uth": 3673,
      "Ġparties": 3674,
      "example": 3675,
      "ĠGe": 3676,
      "!!": 3677,
      "Ġcenter": 3678,
      "After": 3679,
      "ĠFirst": 3680,
      "apan": 3681,
      "raft": 3682,
      "ĠMon": 3683,
      "Ġcompetitive": 3684,
      "ĠGerm": 3685,
      "Ġadult": 3686,
      "Ġword": 3687,
      "Ġexactly": 3688,
      "hern": 3689,
      "set": 3690,
      "Ġstraight": 3691,
      "IL": 3692,
      "ĠCanada": 3693,
      "Ġfost": 3694,
      "Ġpresence": 3695,
      "house": 3696,
      "ma": 3697,
      "rial": 3698,
      "Ġupdates": 3699,
      "Ġfunds": 3700,
      "iber": 3701,
      "Ġinstruct": 3702,
      "ĠMarch": 3703,
      "ĠUnder": 3704,
      "iforn": 3705,
      "Ġstatement": 3706,
      "Ġcapital": 3707,
      "Ġreviews": 3708,
      "lock": 3709,
      "Ġsong": 3710,
      "Ġsale": 3711,
      "ocol": 3712,
      "Ġbott": 3713,
      "ength": 3714,
      "ĠManagement": 3715,
      "gar": 3716,
      "Ġtown": 3717,
      "Ġfeeling": 3718,
      "Ġworkers": 3719,
      "Ġlaws": 3720,
      "Ġcompliance": 3721,
      "Ġpretty": 3722,
      "Ġcommitted": 3723,
      "iance": 3724,
      "ĠEl": 3725,
      "wood": 3726,
      "Ġtechnologies": 3727,
      "ĠAP": 3728,
      "Ġsaw": 3729,
      "Ġpractical": 3730,
      "ĠMc": 3731,
      "Ġvict": 3732,
      "Ġenvironmental": 3733,
      "Ġinstallation": 3734,
      "Is": 3735,
      "anging": 3736,
      "Ġkeeping": 3737,
      "Ġgreater": 3738,
      "Ġdesigns": 3739,
      "Ġpet": 3740,
      "rated": 3741,
      "rastructure": 3742,
      "Ġoccur": 3743,
      "icks": 3744,
      "Ġappl": 3745,
      "ifying": 3746,
      "ded": 3747,
      "Ġslots": 3748,
      "Ġdetailed": 3749,
      "nes": 3750,
      "pper": 3751,
      "Ġplaces": 3752,
      "ĠTV": 3753,
      "zz": 3754,
      "Ġtur": 3755,
      "Ġstrugg": 3756,
      "Ġclin": 3757,
      "Ġscience": 3758,
      "Ġbasic": 3759,
      "16": 3760,
      "Ġmonit": 3761,
      "ĠAdditionally": 3762,
      "Your": 3763,
      "ĠEuropean": 3764,
      "Ġdark": 3765,
      "ifornia": 3766,
      "ĠEnglish": 3767,
      "edding": 3768,
      "18": 3769,
      "phas": 3770,
      "ĠIT": 3771,
      "down": 3772,
      "ĠInformation": 3773,
      "Ġspend": 3774,
      "pen": 3775,
      "ĠAustralia": 3776,
      "ham": 3777,
      "istry": 3778,
      "Ġsold": 3779,
      "Ġemotional": 3780,
      "RO": 3781,
      "Ġsector": 3782,
      "Ġvary": 3783,
      "Ġconcerns": 3784,
      "Ġoccas": 3785,
      "pped": 3786,
      "Ġdepending": 3787,
      "Ġhttps": 3788,
      "Ġlandscape": 3789,
      "Ġadding": 3790,
      "duc": 3791,
      "Ġwrong": 3792,
      "oday": 3793,
      "Ġproperties": 3794,
      "ashing": 3795,
      "ĠOF": 3796,
      "ban": 3797,
      "ĠOct": 3798,
      "porary": 3799,
      "Ġspread": 3800,
      "Ġgas": 3801,
      "Ġmeasures": 3802,
      "Here": 3803,
      "Ġweather": 3804,
      "airs": 3805,
      "Please": 3806,
      "last": 3807,
      "arc": 3808,
      "Ġformer": 3809,
      "Ġmaintaining": 3810,
      "unning": 3811,
      "Ġmeasure": 3812,
      "Ġestablished": 3813,
      "ĠSat": 3814,
      "ĠSEO": 3815,
      "Ġinterested": 3816,
      "ament": 3817,
      "âĢĿ.": 3818,
      "ĠHome": 3819,
      "Ġeyes": 3820,
      "Ġhighest": 3821,
      "Ġsuff": 3822,
      "Ġincred": 3823,
      "Ġnation": 3824,
      "Ġotherwise": 3825,
      "Ġglass": 3826,
      "MS": 3827,
      "Ġvibr": 3828,
      "acity": 3829,
      "Ġneigh": 3830,
      "acing": 3831,
      "ĠStr": 3832,
      "Ġmother": 3833,
      "Ġhor": 3834,
      "Re": 3835,
      "ĠBest": 3836,
      "ĠBrit": 3837,
      "Ġregulations": 3838,
      "Ġstatus": 3839,
      "Ġprimary": 3840,
      "Ġsav": 3841,
      "Ġreports": 3842,
      "Ġx": 3843,
      "venue": 3844,
      "Ġproviders": 3845,
      "issions": 3846,
      "No": 3847,
      "ĠApril": 3848,
      "Ġincorpor": 3849,
      "Ġexciting": 3850,
      "Ġhous": 3851,
      "Ġpros": 3852,
      "iar": 3853,
      "ĠThen": 3854,
      "ris": 3855,
      "Ġtailored": 3856,
      "Ġtrends": 3857,
      "Ġresist": 3858,
      "Ġmount": 3859,
      "Ġwait": 3860,
      "40": 3861,
      "ressive": 3862,
      "Ġplus": 3863,
      "ĠBro": 3864,
      "ĠKing": 3865,
      "Ġactions": 3866,
      "Ġreported": 3867,
      "Ġcandid": 3868,
      "Ġdead": 3869,
      "Ġgift": 3870,
      "ĠFace": 3871,
      "ĠOnce": 3872,
      "Ġnumerous": 3873,
      "Ġ:": 3874,
      "Ġic": 3875,
      "eries": 3876,
      "ĠDepartment": 3877,
      "Ġhear": 3878,
      "ĠRead": 3879,
      "Ġhappen": 3880,
      "Ġ2021": 3881,
      "Ġnumbers": 3882,
      "Ġec": 3883,
      "Ġtrip": 3884,
      "Ġbehavior": 3885,
      "Ġcards": 3886,
      "Ġleadership": 3887,
      "EL": 3888,
      "iant": 3889,
      "Ph": 3890,
      "ĠAug": 3891,
      "Ġteac": 3892,
      "Ġhighlight": 3893,
      "Ġprivacy": 3894,
      "Ġstrategic": 3895,
      "ores": 3896,
      "Ġdetermine": 3897,
      "Ġcontinues": 3898,
      "Ġpublished": 3899,
      "Ġretail": 3900,
      "ĠBet": 3901,
      "ĠCalifornia": 3902,
      "Ġwoman": 3903,
      "Ġloved": 3904,
      "arrant": 3905,
      "Ġwild": 3906,
      "alt": 3907,
      "Ġdrug": 3908,
      "Ġmission": 3909,
      "Ġseems": 3910,
      "aj": 3911,
      "Ġexclusive": 3912,
      "Ġlarger": 3913,
      "Ġdisease": 3914,
      "Ġaward": 3915,
      "used": 3916,
      "ounced": 3917,
      "My": 3918,
      "urt": 3919,
      "Ġkitchen": 3920,
      "Ġpool": 3921,
      "Ġfeedback": 3922,
      "ĠPat": 3923,
      "pective": 3924,
      "Ġfashion": 3925,
      "Ġvalid": 3926,
      "Ġthous": 3927,
      "ĠGo": 3928,
      "):": 3929,
      "Ġcompared": 3930,
      "Ġbasis": 3931,
      "istr": 3932,
      "rown": 3933,
      "ĠJapan": 3934,
      "Ġbecomes": 3935,
      "Ġmarkets": 3936,
      "Ġpieces": 3937,
      "Ġfine": 3938,
      "ifications": 3939,
      "Ġextensive": 3940,
      "Ġclassic": 3941,
      "omen": 3942,
      "Ġsettings": 3943,
      "Ġtasks": 3944,
      "ĠIndian": 3945,
      "icious": 3946,
      "asc": 3947,
      "Ġfabric": 3948,
      "Ġmorning": 3949,
      "ĠVis": 3950,
      "Ġpen": 3951,
      "ĠGovern": 3952,
      "gu": 3953,
      "Ġlines": 3954,
      "order": 3955,
      "ses": 3956,
      "Ġpages": 3957,
      "mas": 3958,
      "ube": 3959,
      "Ġfelt": 3960,
      "60": 3961,
      "Ġvital": 3962,
      "Ġclimate": 3963,
      "icy": 3964,
      "iment": 3965,
      "Ġroof": 3966,
      "IP": 3967,
      "Ġshape": 3968,
      "Ġbackground": 3969,
      "lev": 3970,
      "hus": 3971,
      "tee": 3972,
      "oom": 3973,
      "atively": 3974,
      "itude": 3975,
      "Ġsurface": 3976,
      "Ġrestaur": 3977,
      "Un": 3978,
      "Ġrefer": 3979,
      "Ġcolors": 3980,
      "Ġgenerally": 3981,
      "Ġhar": 3982,
      "ky": 3983,
      "Ġwish": 3984,
      "Ġsuppl": 3985,
      "iling": 3986,
      "Ġevidence": 3987,
      "poses": 3988,
      "Ġacad": 3989,
      "osure": 3990,
      "Ġfans": 3991,
      "oul": 3992,
      "Ġbillion": 3993,
      "Ġemphas": 3994,
      "Ġgets": 3995,
      "Ġstudies": 3996,
      "ĠSept": 3997,
      "Ġachie": 3998,
      "enior": 3999,
      "Ġimpl": 4000,
      "pping": 4001,
      "Ġpow": 4002,
      "Ġengage": 4003,
      "itiz": 4004,
      "elines": 4005,
      "Ġfinding": 4006,
      "Ġsharing": 4007,
      "iveness": 4008,
      "ĠLear": 4009,
      "undred": 4010,
      "Ġscient": 4011,
      "Ġinteresting": 4012,
      "ommod": 4013,
      "anch": 4014,
      "Ġindic": 4015,
      "Ġevol": 4016,
      "ĠSte": 4017,
      "Ġfurn": 4018,
      "Ġnice": 4019,
      "Ġauthent": 4020,
      "Ġsolid": 4021,
      "Ġbrought": 4022,
      "Ġinvolves": 4023,
      "Ġbath": 4024,
      "asts": 4025,
      "ĠMake": 4026,
      "Ġchat": 4027,
      "ĠProfess": 4028,
      "Ġtransp": 4029,
      "Ġschedule": 4030,
      "ama": 4031,
      "Ġconfidence": 4032,
      "ĠWork": 4033,
      "Ġimag": 4034,
      "ĠPlan": 4035,
      "Ġsources": 4036,
      "ilit": 4037,
      "Ġdeveloping": 4038,
      "Ġsaying": 4039,
      "anking": 4040,
      "ils": 4041,
      "ĠSet": 4042,
      "Ġproduce": 4043,
      "ĠProduct": 4044,
      "Ġscen": 4045,
      "Ġaw": 4046,
      "Ġclub": 4047,
      "Ġmovement": 4048,
      "Ġdress": 4049,
      "key": 4050,
      "Ġdocuments": 4051,
      "erved": 4052,
      "Ġcoverage": 4053,
      "ĠMus": 4054,
      "Ġmid": 4055,
      "Ġvoice": 4056,
      "Ġcloud": 4057,
      "Ġfat": 4058,
      "arlier": 4059,
      "aker": 4060,
      "Ġdefinitely": 4061,
      "AP": 4062,
      "Ġremov": 4063,
      "Ġphotos": 4064,
      "Ġsimpl": 4065,
      "Ġbra": 4066,
      "ĠEven": 4067,
      "Ġcovered": 4068,
      "Ġbutton": 4069,
      "ivil": 4070,
      "Ġfee": 4071,
      "Ġcomponents": 4072,
      "che": 4073,
      "ask": 4074,
      "ography": 4075,
      "Ġforms": 4076,
      "ĠCoun": 4077,
      "Ġpurposes": 4078,
      "Ġchem": 4079,
      "VID": 4080,
      "dy": 4081,
      "erce": 4082,
      "unt": 4083,
      "ocal": 4084,
      "Ġlaunch": 4085,
      "iam": 4086,
      "ĠRet": 4087,
      "13": 4088,
      "ĠJuly": 4089,
      "80": 4090,
      "Ġarchitect": 4091,
      "Pl": 4092,
      "Ġbrands": 4093,
      "ĠInter": 4094,
      "Ġ2019": 4095,
      "Ġcombination": 4096,
      "ira": 4097,
      "ĠCare": 4098,
      "atures": 4099,
      "Ġclaims": 4100,
      "Ġguarantee": 4101,
      "isation": 4102,
      "Ġpreferences": 4103,
      "Ġaspects": 4104,
      "ĠHar": 4105,
      "ague": 4106,
      "Ġwrite": 4107,
      "Ġguidance": 4108,
      "14": 4109,
      "ĠResearch": 4110,
      "Ġrap": 4111,
      "Ġinfrastructure": 4112,
      "Ġbeginning": 4113,
      "ĠCheck": 4114,
      "ser": 4115,
      "Ġbrain": 4116,
      "Ġgar": 4117,
      "Ġuseful": 4118,
      "Ġplants": 4119,
      "Ġdiet": 4120,
      "24": 4121,
      "Ġapps": 4122,
      "oist": 4123,
      "ester": 4124,
      "dr": 4125,
      "ĠSpe": 4126,
      "draw": 4127,
      "ĠTrump": 4128,
      "Ġresponsibility": 4129,
      "uations": 4130,
      "sec": 4131,
      "agram": 4132,
      "faction": 4133,
      "Ġ,": 4134,
      "Ġoutdoor": 4135,
      ".)": 4136,
      "ĠIts": 4137,
      "ĠÂ£": 4138,
      "inct": 4139,
      "Ġbrings": 4140,
      "Ġaccessible": 4141,
      "Ġvehicles": 4142,
      "Ġcore": 4143,
      "Ġingredients": 4144,
      "ĠCor": 4145,
      "Ġ60": 4146,
      "rig": 4147,
      "Ġtick": 4148,
      "Ġdecided": 4149,
      "Ġloan": 4150,
      "AD": 4151,
      "amin": 4152,
      "ively": 4153,
      "Ġeth": 4154,
      "azon": 4155,
      "Ġdegree": 4156,
      "Ġbirth": 4157,
      "ĠTerm": 4158,
      "Ġexchange": 4159,
      "rim": 4160,
      "Ġeconomy": 4161,
      "ault": 4162,
      "Ġremove": 4163,
      "Ġpromote": 4164,
      "Ġpsych": 4165,
      "ĠTy": 4166,
      "Ġpremium": 4167,
      "Ġsympt": 4168,
      "Ġlinks": 4169,
      "Ġcoffee": 4170,
      "Ġir": 4171,
      "Ġfinish": 4172,
      "Ġdecor": 4173,
      "Ġseek": 4174,
      "Ġupdate": 4175,
      "Ġbelie": 4176,
      "Ġâ": 4177,
      "ibilities": 4178,
      "Ġcentral": 4179,
      "ĠNews": 4180,
      "husi": 4181,
      "99": 4182,
      "being": 4183,
      "Ġsuitable": 4184,
      "Ġter": 4185,
      "Ġesc": 4186,
      "Ġmaster": 4187,
      "US": 4188,
      "Ġpok": 4189,
      "amb": 4190,
      "ny": 4191,
      "ara": 4192,
      "EM": 4193,
      "eds": 4194,
      "ums": 4195,
      "Ġwall": 4196,
      "Ġcompleted": 4197,
      "Ġ+": 4198,
      "Ġalone": 4199,
      "Ġ21": 4200,
      "Ġassets": 4201,
      "mm": 4202,
      "ĠAny": 4203,
      "istered": 4204,
      "Ġfederal": 4205,
      "ĠWar": 4206,
      "Ġfear": 4207,
      "Ġshowc": 4208,
      "osing": 4209,
      "They": 4210,
      "Ġschools": 4211,
      "aint": 4212,
      "Ġreducing": 4213,
      "Ġmicro": 4214,
      "Ġtalent": 4215,
      "Ġtrading": 4216,
      "Ġfocused": 4217,
      "works": 4218,
      "Ġchoices": 4219,
      "bu": 4220,
      "Ġinfluence": 4221,
      "Ġdisp": 4222,
      "Ġvibrant": 4223,
      "Ġhelped": 4224,
      "ternal": 4225,
      "estyle": 4226,
      "ica": 4227,
      "Ġshopping": 4228,
      "ĠSaf": 4229,
      "Ġcookies": 4230,
      "outs": 4231,
      "nown": 4232,
      "amed": 4233,
      "Ġwelcome": 4234,
      "Ġreality": 4235,
      "En": 4236,
      "ĠSub": 4237,
      "Ġextend": 4238,
      "Ġfiles": 4239,
      "lusion": 4240,
      "Ġaccurate": 4241,
      "17": 4242,
      "Ġdri": 4243,
      "Ġhundred": 4244,
      "fficient": 4245,
      "ENT": 4246,
      "fit": 4247,
      "Ġbecoming": 4248,
      "mat": 4249,
      "Ġspent": 4250,
      "Ġmanufacturer": 4251,
      "Ġwasn": 4252,
      "Ġnormal": 4253,
      "orough": 4254,
      "Ġdat": 4255,
      "Ġleader": 4256,
      "flow": 4257,
      "rency": 4258,
      "Ġpersonalized": 4259,
      "ondon": 4260,
      "iture": 4261,
      "ĠDav": 4262,
      "Ġengaging": 4263,
      "lines": 4264,
      "Ġcontribute": 4265,
      "Ġhour": 4266,
      "amm": 4267,
      "Ġge": 4268,
      "ĠTime": 4269,
      "Ġplayed": 4270,
      "hetic": 4271,
      "Ġexercise": 4272,
      "ipl": 4273,
      "inese": 4274,
      "Ġaccommod": 4275,
      "othing": 4276,
      "ying": 4277,
      "Ġsigns": 4278,
      "Ġremind": 4279,
      "That": 4280,
      "tion": 4281,
      "Ġrecovery": 4282,
      "ĠGr": 4283,
      "Ġcertainly": 4284,
      "Ġparticipants": 4285,
      "Ġpatterns": 4286,
      "ero": 4287,
      "ĠSan": 4288,
      "ĠAng": 4289,
      "Ġencourage": 4290,
      "asy": 4291,
      "Ġprint": 4292,
      "Ġenthusi": 4293,
      "ĠFacebook": 4294,
      "Ġsort": 4295,
      "ĠWell": 4296,
      "Ġsession": 4297,
      "ĠDisc": 4298,
      "Ġmyself": 4299,
      "ibrary": 4300,
      "Ġabsolute": 4301,
      "Ġintellig": 4302,
      "ounce": 4303,
      "Ġallowed": 4304,
      "tics": 4305,
      "ĠLa": 4306,
      "Ġtrad": 4307,
      "Ġactual": 4308,
      "ĠAdd": 4309,
      "Ġalternative": 4310,
      "eless": 4311,
      "Ġtrain": 4312,
      "Ġidentity": 4313,
      "IM": 4314,
      "Ġball": 4315,
      "ails": 4316,
      "comes": 4317,
      "Ġopin": 4318,
      "Ġaccounts": 4319,
      "ĠEduc": 4320,
      "Ġpackage": 4321,
      "ĠSur": 4322,
      "rief": 4323,
      "Ġvisitors": 4324,
      "Ġpicture": 4325,
      "ront": 4326,
      "Ġinstance": 4327,
      "Ġviews": 4328,
      "Ġsociety": 4329,
      "Ġorigin": 4330,
      "Ġmanaging": 4331,
      "ĠSeptember": 4332,
      "Ġhab": 4333,
      "Ġannounced": 4334,
      "Ġcapacity": 4335,
      "Ġleads": 4336,
      "ĠRel": 4337,
      "Ġenab": 4338,
      "Ġpush": 4339,
      "Ġdoll": 4340,
      "icking": 4341,
      "rench": 4342,
      "Ġdiscount": 4343,
      "Ġfacilities": 4344,
      "Ġcollaboration": 4345,
      "Yes": 4346,
      "Ġpayments": 4347,
      "sp": 4348,
      "Ġforce": 4349,
      "Ġfill": 4350,
      "Ġshown": 4351,
      "ĠJanuary": 4352,
      "Ġreleased": 4353,
      "Ġcircum": 4354,
      "gn": 4355,
      "phone": 4356,
      "Ġlargest": 4357,
      "Ġreact": 4358,
      "Ġspaces": 4359,
      "Ġvideos": 4360,
      "Ġprepared": 4361,
      "mar": 4362,
      "Ġeleg": 4363,
      "Ġnearly": 4364,
      "Ġshap": 4365,
      "Ġtaste": 4366,
      "cember": 4367,
      "Ġprompt": 4368,
      "Ġemployee": 4369,
      "Ġsatisf": 4370,
      "Ġcomment": 4371,
      "ĠOctober": 4372,
      "Ġassign": 4373,
      "Ġcapabilities": 4374,
      "ovember": 4375,
      "Ġenable": 4376,
      "Ġtrial": 4377,
      "Ġcraft": 4378,
      "oly": 4379,
      "Ġshop": 4380,
      "Ġtend": 4381,
      "Ġsupporting": 4382,
      "Ġinjury": 4383,
      "isl": 4384,
      "Ġfeet": 4385,
      "Ġwinning": 4386,
      "Ġversat": 4387,
      "gen": 4388,
      "aled": 4389,
      "Ġdig": 4390,
      "ĠMicro": 4391,
      "Ġsets": 4392,
      "Ġmonitoring": 4393,
      "Ġbaby": 4394,
      "ĠAnt": 4395,
      "body": 4396,
      "esus": 4397,
      "ender": 4398,
      "uration": 4399,
      "Ġcold": 4400,
      "band": 4401,
      "ĠPal": 4402,
      "Ġtitle": 4403,
      "ĠPersonal": 4404,
      "Ġgoods": 4405,
      "Ġsweet": 4406,
      "ĠWeb": 4407,
      "Ġrefund": 4408,
      "tra": 4409,
      "ĠMem": 4410,
      "Ġ2018": 4411,
      "Ġfunding": 4412,
      "reed": 4413,
      "Ġjobs": 4414,
      "itors": 4415,
      "ĠAugust": 4416,
      "Ġrecommended": 4417,
      "ĠSecurity": 4418,
      "ĠMich": 4419,
      "Ġspecifically": 4420,
      "Ġgrant": 4421,
      "Ġwarrant": 4422,
      "Ġwants": 4423,
      "bur": 4424,
      "Ġinspect": 4425,
      "Ġdang": 4426,
      "Ġwedding": 4427,
      "roud": 4428,
      "ĠOffice": 4429,
      "unction": 4430,
      "ĠAlso": 4431,
      "ĠTex": 4432,
      "Ġblend": 4433,
      "Ġlength": 4434,
      "ĠPort": 4435,
      "Ġproperly": 4436,
      "Ġconnected": 4437,
      "Get": 4438,
      "itter": 4439,
      "Ġowner": 4440,
      "ĠAND": 4441,
      "yl": 4442,
      "Ġtherefore": 4443,
      "Ġmilitary": 4444,
      "Ġheavy": 4445,
      "Ġtoward": 4446,
      "Ġcancer": 4447,
      "uk": 4448,
      "Ġbul": 4449,
      "Ġspins": 4450,
      "Ġchanging": 4451,
      "Ġvac": 4452,
      "Do": 4453,
      "Ġpolice": 4454,
      "Ġmanufacturing": 4455,
      "atever": 4456,
      "Ġrapid": 4457,
      "ĠOther": 4458,
      "Ġattor": 4459,
      "Ġsymptoms": 4460,
      "roid": 4461,
      "Ġwaste": 4462,
      "Ġongoing": 4463,
      "Ġdebt": 4464,
      "Ġcris": 4465,
      "vere": 4466,
      "ifts": 4467,
      "Ġtracking": 4468,
      "iced": 4469,
      "Ġship": 4470,
      "ĠCourt": 4471,
      "Ġgather": 4472,
      "Ġrecords": 4473,
      "Ġaffordable": 4474,
      "Ġtrou": 4475,
      "Ġfant": 4476,
      "imately": 4477,
      "Ġcontinued": 4478,
      "Ġkn": 4479,
      "Ġsatisfaction": 4480,
      "gment": 4481,
      "Ġnavigate": 4482,
      "Ġpricing": 4483,
      "Ġslight": 4484,
      "100": 4485,
      "Ġfem": 4486,
      "ptions": 4487,
      "Ġdro": 4488,
      "Ġliter": 4489,
      "Ġmaximum": 4490,
      "ĠChristmas": 4491,
      "App": 4492,
      "eper": 4493,
      "Ġdiagn": 4494,
      "UR": 4495,
      "rael": 4496,
      "IV": 4497,
      "Con": 4498,
      "Ġaren": 4499,
      "ĠFriday": 4500,
      "uality": 4501,
      "Ġfaith": 4502,
      "Ġtemperature": 4503,
      "ĠLondon": 4504,
      "Ġplaced": 4505,
      "unte": 4506,
      "ĠPhil": 4507,
      "lin": 4508,
      "Ġsurv": 4509,
      "Ġgraph": 4510,
      "ĠDem": 4511,
      "Ġsched": 4512,
      "Ġmist": 4513,
      "Ġchoosing": 4514,
      "ĠChinese": 4515,
      "ĠProv": 4516,
      "Ġstands": 4517,
      "ĠSupport": 4518,
      "ald": 4519,
      "Ġbonuses": 4520,
      "Ġprofile": 4521,
      "Ġannual": 4522,
      "Ġapplicable": 4523,
      "ĠAC": 4524,
      "Ġelev": 4525,
      "--": 4526,
      "Ġwind": 4527,
      "Ġearlier": 4528,
      "Ġgave": 4529,
      "ĠFound": 4530,
      "ĠTO": 4531,
      "Now": 4532,
      "Ġagency": 4533,
      "rical": 4534,
      "uries": 4535,
      "Ġheard": 4536,
      "Ġagreement": 4537,
      "Ġinterests": 4538,
      "life": 4539,
      "fol": 4540,
      "ida": 4541,
      "ĠGold": 4542,
      "Ġcompetition": 4543,
      "Ġextremely": 4544,
      "ĠDevelopment": 4545,
      "ville": 4546,
      "ĠDist": 4547,
      "Ġeducational": 4548,
      "Ġpriorit": 4549,
      "Ġadvertising": 4550,
      "Ġconfirm": 4551,
      "Ġappearance": 4552,
      "Ġfaster": 4553,
      "Ġeat": 4554,
      "Ġhimself": 4555,
      "Ġsmaller": 4556,
      "Ġod": 4557,
      "ari": 4558,
      "leg": 4559,
      "Ġwithdraw": 4560,
      "ĠHol": 4561,
      "Ġbuying": 4562,
      "ĠDirector": 4563,
      "Im": 4564,
      "icine": 4565,
      "ervation": 4566,
      "Ġturned": 4567,
      "Ġintegration": 4568,
      "ĠBoard": 4569,
      "Ġden": 4570,
      "ĠWhy": 4571,
      "Ġlawy": 4572,
      "mosp": 4573,
      "Ġsole": 4574,
      "ĠHy": 4575,
      "Ġsuit": 4576,
      "Ġconvenient": 4577,
      "However": 4578,
      "Ġchanged": 4579,
      "ĠBel": 4580,
      "Ġchallenging": 4581,
      "Ġcaused": 4582,
      "idential": 4583,
      "Ġimproving": 4584,
      "Ġscale": 4585,
      "iences": 4586,
      "Ġfacilit": 4587,
      "Ġevalu": 4588,
      "ivate": 4589,
      "Ġfulf": 4590,
      "irus": 4591,
      "Ġcompl": 4592,
      "soft": 4593,
      "ĠProt": 4594,
      "ĠBra": 4595,
      "ilding": 4596,
      "Ġknew": 4597,
      "Ġemergency": 4598,
      "Â®": 4599,
      "Ġvent": 4600,
      "Ġcorporate": 4601,
      "Ġguests": 4602,
      "ĠSuper": 4603,
      "Ġoperating": 4604,
      "rab": 4605,
      "Ġcontroll": 4606,
      "Ġupgra": 4607,
      "ĠPower": 4608,
      "ĠHel": 4609,
      "Ġvirtual": 4610,
      "ĠFeb": 4611,
      "box": 4612,
      "inner": 4613,
      "ĠFam": 4614,
      "Ġcarefully": 4615,
      "Ġtask": 4616,
      "Ġmer": 4617,
      "ivered": 4618,
      "Ġminimum": 4619,
      "ĠStart": 4620,
      "itness": 4621,
      "ĠLeg": 4622,
      "Ġautomatically": 4623,
      "ĠPost": 4624,
      "Ġflu": 4625,
      "asure": 4626,
      "ĠDecember": 4627,
      "Ġupdated": 4628,
      "Ġestim": 4629,
      "Ġbattery": 4630,
      "unk": 4631,
      "Ġjack": 4632,
      "Ġsessions": 4633,
      "ĠGam": 4634,
      "Ġresidents": 4635,
      "orrow": 4636,
      "Ġboy": 4637,
      "Ġhop": 4638,
      "ĠJesus": 4639,
      "Ġelig": 4640,
      "ĠOR": 4641,
      "iers": 4642,
      "Ġinvestors": 4643,
      "Ġthorough": 4644,
      "Ġpredict": 4645,
      "Ġdiscl": 4646,
      "Ġluxury": 4647,
      "Ġfuel": 4648,
      "Ġcharacters": 4649,
      "Ġmaybe": 4650,
      "Ġdouble": 4651,
      "Ġaest": 4652,
      "onic": 4653,
      "Ġfunctionality": 4654,
      "Ġmachines": 4655,
      "Ġsupports": 4656,
      "Ġlifestyle": 4657,
      "ĠAmazon": 4658,
      "ĠOpen": 4659,
      "agers": 4660,
      "Ġcutting": 4661,
      "oration": 4662,
      "www": 4663,
      "cious": 4664,
      "Ġimproved": 4665,
      "Ġproud": 4666,
      "ĠBank": 4667,
      "Ġcollege": 4668,
      "eline": 4669,
      "Ġexhib": 4670,
      "que": 4671,
      "Ġ22": 4672,
      "Ġwhose": 4673,
      "Ġtransl": 4674,
      "ĠAccount": 4675,
      "Ġstick": 4676,
      "Ġinternal": 4677,
      "idden": 4678,
      "Ġperhaps": 4679,
      "Ġdynamic": 4680,
      "Ġcitiz": 4681,
      "Ġtalking": 4682,
      "ĠGreat": 4683,
      "Ġunit": 4684,
      "LE": 4685,
      "ico": 4686,
      "ĠNovember": 4687,
      "Ġexceptional": 4688,
      "Ġgarden": 4689,
      "vention": 4690,
      "ĠTexas": 4691,
      "ĠSocial": 4692,
      "Ġindependent": 4693,
      "Ġremote": 4694,
      "Ġbeg": 4695,
      "idents": 4696,
      "ĠCOVID": 4697,
      "Ġcircumst": 4698,
      "Ġreward": 4699,
      "Ġchain": 4700,
      "Ġdetect": 4701,
      "Ġprotected": 4702,
      "Ġatmosp": 4703,
      "ĠElect": 4704,
      "irection": 4705,
      "Ġgeneration": 4706,
      "oles": 4707,
      "Ġblue": 4708,
      "ĠCommission": 4709,
      "ĠJack": 4710,
      "Ġovers": 4711,
      "ĠEast": 4712,
      "Ġquant": 4713,
      "iction": 4714,
      "Cont": 4715,
      "Ġacademic": 4716,
      "ĠInvest": 4717,
      "ĠReal": 4718,
      "Ġopening": 4719,
      "Ġworry": 4720,
      "Ġroutine": 4721,
      "ĠMa": 4722,
      "Ġrace": 4723,
      "Ġweeke": 4724,
      "Ġvot": 4725,
      "ĠMain": 4726,
      "Ġlocations": 4727,
      "ishes": 4728,
      "Ġrise": 4729,
      "Ġconsistent": 4730,
      "estern": 4731,
      "ĠGood": 4732,
      "Ġband": 4733,
      "Ġhelpful": 4734,
      "ĠGreen": 4735,
      "onday": 4736,
      "Ġentry": 4737,
      "Ġstuff": 4738,
      "Ġappoint": 4739,
      "Ġrare": 4740,
      "ĠEv": 4741,
      "Ġflexibility": 4742,
      "umn": 4743,
      "Ġregistration": 4744,
      "Ġworldwide": 4745,
      "ros": 4746,
      "ĠSing": 4747,
      "Ġspending": 4748,
      "Ġpoor": 4749,
      "Ġthanks": 4750,
      "Ġfunctions": 4751,
      "ech": 4752,
      "ĠWindow": 4753,
      "andemic": 4754,
      "AB": 4755,
      "ĠAssociation": 4756,
      "Ġbright": 4757,
      "Ġpopulation": 4758,
      "top": 4759,
      "Ġbound": 4760,
      "Ġrenew": 4761,
      "Ġcalls": 4762,
      "Ġenhancing": 4763,
      "Ġfriendly": 4764,
      "Ġregularly": 4765,
      "Ġconsidering": 4766,
      "Ġplays": 4767,
      "âĢĿ,": 4768,
      "Ġinvent": 4769,
      "Ġstunning": 4770,
      "ĠMet": 4771,
      "Ġmoist": 4772,
      "Some": 4773,
      "Ġthank": 4774,
      "Ġfigure": 4775,
      "Ġrestrict": 4776,
      "à®": 4777,
      "illa": 4778,
      "Ġhyd": 4779,
      "ĠBecause": 4780,
      "Ġease": 4781,
      "Ġdecl": 4782,
      "Ġoblig": 4783,
      "comm": 4784,
      "gery": 4785,
      "22": 4786,
      "Ġdecide": 4787,
      "ĠDet": 4788,
      "Ġflavor": 4789,
      "Ġdrop": 4790,
      "ĠKeep": 4791,
      "ulate": 4792,
      "osition": 4793,
      "odcast": 4794,
      "Ġanti": 4795,
      "Ġadds": 4796,
      "ĠIP": 4797,
      "Ġaccident": 4798,
      "Step": 4799,
      "Ġreturns": 4800,
      "prene": 4801,
      "ĠWhite": 4802,
      "Ġconsumer": 4803,
      "ĠAfrica": 4804,
      "iples": 4805,
      "Ġconsumers": 4806,
      "ĠIr": 4807,
      "lands": 4808,
      "ĠIsrael": 4809,
      "ĠAtt": 4810,
      "ij": 4811,
      "semb": 4812,
      "Ġtech": 4813,
      "Ġseeing": 4814,
      "ĠSince": 4815,
      "Ġselected": 4816,
      "Ġtherapy": 4817,
      "Ġbiggest": 4818,
      "Ġtrusted": 4819,
      "Ġ2016": 4820,
      "Ġdelivered": 4821,
      "pot": 4822,
      "aren": 4823,
      "Ġoutcomes": 4824,
      "reprene": 4825,
      "umin": 4826,
      "Ġbill": 4827,
      "Ġmill": 4828,
      "Ġgrand": 4829,
      "Comm": 4830,
      "Ġlicense": 4831,
      "Ġwonderful": 4832,
      "Ġrevenue": 4833,
      "Ġdoctor": 4834,
      "ĠGeneral": 4835,
      "Ġbottom": 4836,
      "estival": 4837,
      "hy": 4838,
      "Ġfather": 4839,
      "ĠSch": 4840,
      "ĠIS": 4841,
      "ĠEst": 4842,
      "Ġlisted": 4843,
      "500": 4844,
      "arge": 4845,
      "Ġhotel": 4846,
      "Ġthousands": 4847,
      "icians": 4848,
      "Ġexpectations": 4849,
      "Ġconfig": 4850,
      "ĠSund": 4851,
      "ocr": 4852,
      "ĠGlobal": 4853,
      "ĠCommunity": 4854,
      "Ġcharges": 4855,
      "Ġserver": 4856,
      "ĠLife": 4857,
      "Ġplenty": 4858,
      "Ġindustrial": 4859,
      "Ġoperation": 4860,
      "Ġaffil": 4861,
      "ĠSee": 4862,
      "Ġjoy": 4863,
      "related": 4864,
      "Ġamb": 4865,
      "Ġadvantages": 4866,
      "cknow": 4867,
      "ruary": 4868,
      "Ġserves": 4869,
      "Ġcreation": 4870,
      "ordin": 4871,
      "estic": 4872,
      "ĠUk": 4873,
      "Ġcounter": 4874,
      "Ġprocedures": 4875,
      "Ġdriver": 4876,
      "ula": 4877,
      "Ġintended": 4878,
      "Ġtransition": 4879,
      "Ġmovie": 4880,
      "Ġcourses": 4881,
      "ĠTake": 4882,
      "ĠCEO": 4883,
      "Ġfeels": 4884,
      "Ġrobust": 4885,
      "TH": 4886,
      "orge": 4887,
      "ĠToday": 4888,
      "ĠLim": 4889,
      "ĠProject": 4890,
      "Ġath": 4891,
      "ĠCap": 4892,
      "ker": 4893,
      "Ġcrow": 4894,
      "iration": 4895,
      "Ġcoin": 4896,
      "ows": 4897,
      "ĠPC": 4898,
      "ffective": 4899,
      "pa": 4900,
      "ĠMat": 4901,
      "ĠLead": 4902,
      "Ġhom": 4903,
      "ĠThrough": 4904,
      "Ġrelig": 4905,
      "icial": 4906,
      "Ġrepe": 4907,
      "Ġcalcul": 4908,
      "rition": 4909,
      "Ġlots": 4910,
      "ĠPeople": 4911,
      "Ġwine": 4912,
      "ĠTerms": 4913,
      "inations": 4914,
      "Ġentertainment": 4915,
      "AI": 4916,
      "apter": 4917,
      "Ġedge": 4918,
      "Ġletter": 4919,
      "pass": 4920,
      "Ġwat": 4921,
      "ĠReview": 4922,
      "ĠPublic": 4923,
      "Ġshoot": 4924,
      "Ġadvis": 4925,
      "Ġsteel": 4926,
      "70": 4927,
      "Ġcontains": 4928,
      "rote": 4929,
      "ooper": 4930,
      "Ġregister": 4931,
      "Ġolder": 4932,
      "reate": 4933,
      "ĠST": 4934,
      "Ġmentioned": 4935,
      "odies": 4936,
      "Ġindustries": 4937,
      "Can": 4938,
      "Ġselling": 4939,
      "Ġholiday": 4940,
      "Ġwaiting": 4941,
      "Ġanc": 4942,
      "Ġinstructions": 4943,
      "ĠDan": 4944,
      "Ġcontext": 4945,
      "Ġfinally": 4946,
      "itcoin": 4947,
      "urday": 4948,
      "Ġfollowed": 4949,
      "Ġconvenience": 4950,
      "ĠFind": 4951,
      "Ġ2017": 4952,
      "Ġtransactions": 4953,
      "Ġhappens": 4954,
      "antic": 4955,
      "osis": 4956,
      "Ġarrange": 4957,
      "nel": 4958,
      "ĠChoose": 4959,
      "Ġfrequently": 4960,
      "Ġfav": 4961,
      "ulner": 4962,
      "unately": 4963,
      "Ġresource": 4964,
      "Ġpray": 4965,
      "Ġalthough": 4966,
      "ĠInstagram": 4967,
      "23": 4968,
      "Ġcomments": 4969,
      "Ġproduced": 4970,
      "OL": 4971,
      "ception": 4972,
      "Ġlabor": 4973,
      "Ġpossess": 4974,
      "Ġmatters": 4975,
      "emy": 4976,
      "Ġcompens": 4977,
      "Ġcream": 4978,
      "Ġsavings": 4979,
      "ĠSa": 4980,
      "200": 4981,
      "ev": 4982,
      "ĠID": 4983,
      "Ġsurvey": 4984,
      "Ġspecies": 4985,
      "Ġfish": 4986,
      "arian": 4987,
      "Ġsport": 4988,
      "ĠWebs": 4989,
      "Ġserved": 4990,
      "Ġmetal": 4991,
      "Ġphoto": 4992,
      "Ġeight": 4993,
      "Ġscore": 4994,
      "Ġlooked": 4995,
      "ĠCouncil": 4996,
      "Ġdirector": 4997,
      "More": 4998,
      "ulated": 4999,
      "Ġlaun": 5000,
      "Ġseparate": 5001,
      "Ġchemical": 5002,
      "lights": 5003,
      "Ġfilled": 5004,
      "ugg": 5005,
      "Ġlicens": 5006,
      "Don": 5007,
      "Ġglob": 5008,
      "known": 5009,
      "Ġteaching": 5010,
      "Ġtruth": 5011,
      "Acc": 5012,
      "From": 5013,
      "onom": 5014,
      "Ġconnections": 5015,
      "Ġbird": 5016,
      "Ġforget": 5017,
      "uty": 5018,
      "ifies": 5019,
      "Ġcontem": 5020,
      "Ġartists": 5021,
      "Ġcircumstances": 5022,
      "ĠInternet": 5023,
      "Ġcivil": 5024,
      "osy": 5025,
      "Once": 5026,
      "hi": 5027,
      "Ġelimin": 5028,
      "Ġmiddle": 5029,
      "ĠSpecial": 5030,
      "Ġenables": 5031,
      "Ġpassword": 5032,
      "Ġcamera": 5033,
      "ĠDigital": 5034,
      "anges": 5035,
      "Ġpermit": 5036,
      "ĠClass": 5037,
      "Ġcentury": 5038,
      "Ġacknow": 5039,
      "ĠCollege": 5040,
      "Ġatmosphere": 5041,
      "Ġspl": 5042,
      "Ġwilling": 5043,
      "Ġworksh": 5044,
      "ĠEducation": 5045,
      "OM": 5046,
      "Ġnames": 5047,
      "Ġcharm": 5048,
      "bility": 5049,
      "Ġtheme": 5050,
      "ounds": 5051,
      "Ġlose": 5052,
      "ĠDec": 5053,
      "?âĢĿ": 5054,
      "Ġfoundation": 5055,
      "Ġprepare": 5056,
      "Ġpandemic": 5057,
      "Ġ--": 5058,
      "ĠEngine": 5059,
      "bl": 5060,
      "Ġflav": 5061,
      "Ġreputation": 5062,
      "ĠBritish": 5063,
      "Ġseven": 5064,
      "cles": 5065,
      "Ġkeyword": 5066,
      "Ġlearned": 5067,
      "Ġdoub": 5068,
      "Ġmotor": 5069,
      "Ġleaving": 5070,
      "Ġepis": 5071,
      "Read": 5072,
      "akers": 5073,
      "mail": 5074,
      "Ġforeign": 5075,
      "ĠHot": 5076,
      "Ġvari": 5077,
      "ĠExp": 5078,
      "Ġinvolve": 5079,
      "Ġpresented": 5080,
      "bing": 5081,
      "Ġbond": 5082,
      "Ġmanager": 5083,
      "ĠContact": 5084,
      "Ĥ¬": 5085,
      "Ġtrees": 5086,
      "ĠApple": 5087,
      "BC": 5088,
      "Ġenvironments": 5089,
      "Ġmessages": 5090,
      "Ġluck": 5091,
      "Ġlegisl": 5092,
      "DA": 5093,
      "TS": 5094,
      "Ġclasses": 5095,
      "Ġcart": 5096,
      "Ġexpenses": 5097,
      "Ġtree": 5098,
      "She": 5099,
      "Ġcab": 5100,
      "Ġstar": 5101,
      "Ġrock": 5102,
      "ĠDef": 5103,
      "plore": 5104,
      "Ġ90": 5105,
      "Ġlayer": 5106,
      "Ġcomplic": 5107,
      "Ġhospital": 5108,
      "ĠGovernment": 5109,
      "Ġpaint": 5110,
      "ĠInstitute": 5111,
      "Ġ23": 5112,
      "PR": 5113,
      "Ġloyal": 5114,
      "ĠDuring": 5115,
      "ĠJew": 5116,
      "Ġawareness": 5117,
      "ashington": 5118,
      "ĠKey": 5119,
      "aughter": 5120,
      "ĠMart": 5121,
      "Ġcarbon": 5122,
      "Ġmoments": 5123,
      "ĠYear": 5124,
      "Ġsurpr": 5125,
      "Ġcars": 5126,
      "Ġposts": 5127,
      "Ġformat": 5128,
      "ĠSign": 5129,
      "ounder": 5130,
      "Ġscene": 5131,
      "Ġwinter": 5132,
      "Ġmort": 5133,
      "Ġonto": 5134,
      "rics": 5135,
      "ĠFlor": 5136,
      "equ": 5137,
      "ĠWord": 5138,
      "ĠOb": 5139,
      "luding": 5140,
      "Ġment": 5141,
      "arity": 5142,
      "ĠFebruary": 5143,
      "ĠTest": 5144,
      "mental": 5145,
      "mes": 5146,
      "making": 5147,
      "Ġproceed": 5148,
      "ĠCommit": 5149,
      "Ġmoved": 5150,
      "net": 5151,
      "Ġbreath": 5152,
      "Ġwrote": 5153,
      "ĠMal": 5154,
      "umber": 5155,
      "Ġexpensive": 5156,
      "Ġinstru": 5157,
      "Ġconflic": 5158,
      "Ġdistinct": 5159,
      "Ġmotiv": 5160,
      "Ġroles": 5161,
      "Ġwindows": 5162,
      "za": 5163,
      "Ġson": 5164,
      "erse": 5165,
      "ĠMor": 5166,
      "rees": 5167,
      "Ġthus": 5168,
      "Ġreaders": 5169,
      "Ġdeploy": 5170,
      "Ġtried": 5171,
      "65": 5172,
      "iors": 5173,
      "lets": 5174,
      "Ġpair": 5175,
      "ocation": 5176,
      "ĠAccess": 5177,
      "Ġregistered": 5178,
      "ĠMonday": 5179,
      "Ġadvoc": 5180,
      "Ġcreates": 5181,
      "uracy": 5182,
      "Ġrein": 5183,
      "Ġbringing": 5184,
      "ĠWater": 5185,
      "pected": 5186,
      "Ġdestination": 5187,
      "bed": 5188,
      "Ġapplied": 5189,
      "Ġflexible": 5190,
      "Ġdirection": 5191,
      "ript": 5192,
      "Ġresil": 5193,
      "Ġrecip": 5194,
      "Ġaudio": 5195,
      "Ġconsequ": 5196,
      "Ġchances": 5197,
      "uman": 5198,
      "Ġimmediate": 5199,
      "ĠTop": 5200,
      "ĠStand": 5201,
      "Ġice": 5202,
      "Ġvulner": 5203,
      "Under": 5204,
      "Ġbag": 5205,
      "Ġmanner": 5206,
      "Ġreturned": 5207,
      "nergy": 5208,
      "Ġpotentially": 5209,
      "Ġframew": 5210,
      "ael": 5211,
      "Ġlisten": 5212,
      "osen": 5213,
      "Ġartist": 5214,
      "Ġfamiliar": 5215,
      "New": 5216,
      "ĠSpr": 5217,
      "Ġvolunte": 5218,
      "Ġfan": 5219,
      "Ġpreviously": 5220,
      "Ġserving": 5221,
      "Ġdram": 5222,
      "Ġlov": 5223,
      "olic": 5224,
      "Ġfurniture": 5225,
      "ĠAdv": 5226,
      "Ġlighting": 5227,
      "ĠSunday": 5228,
      "BA": 5229,
      "ensions": 5230,
      "olutions": 5231,
      "Ġmeant": 5232,
      "ym": 5233,
      "Ġresol": 5234,
      "Ġinterface": 5235,
      "oors": 5236,
      "Ġpresident": 5237,
      "Ġjournal": 5238,
      "Not": 5239,
      "Ġclearly": 5240,
      "Ġnegative": 5241,
      "Ġnovel": 5242,
      "Ġbrowser": 5243,
      "Ġdomain": 5244,
      "Ġpu": 5245,
      "aser": 5246,
      "celer": 5247,
      "Ġsustainability": 5248,
      "Ġprote": 5249,
      "IG": 5250,
      "Ġ28": 5251,
      "Ġhappened": 5252,
      "Ġcauses": 5253,
      "Des": 5254,
      "ĠTrust": 5255,
      "win": 5256,
      "Ġmanaged": 5257,
      "Ġpassed": 5258,
      "Ġmonthly": 5259,
      "Ġnor": 5260,
      "Ġfreed": 5261,
      "holders": 5262,
      "Ġpictures": 5263,
      "spe": 5264,
      "Ġdating": 5265,
      "Ġconversation": 5266,
      "Ġteeth": 5267,
      "Ġshowing": 5268,
      "Ġmemory": 5269,
      "Ġkept": 5270,
      "Ġperfectly": 5271,
      "ulations": 5272,
      "Ġdelight": 5273,
      "Ġinstitutions": 5274,
      "Ġdatab": 5275,
      "ĠWindows": 5276,
      "Ġsizes": 5277,
      "Ġprecise": 5278,
      "Ġauthentic": 5279,
      "Ġexcess": 5280,
      "Ġdeeper": 5281,
      "active": 5282,
      "Ġreporting": 5283,
      "Ġanimals": 5284,
      "Ġearth": 5285,
      "ĠFrench": 5286,
      "ĠThank": 5287,
      "Ġkeeps": 5288,
      "Ġreduced": 5289,
      "Ġdescribed": 5290,
      "ĠII": 5291,
      "Ġadventure": 5292,
      "Ġretain": 5293,
      "Ġsugar": 5294,
      "Ġtopics": 5295,
      "Ġincreasingly": 5296,
      "Ġdepth": 5297,
      "RA": 5298,
      "uine": 5299,
      "ĠLook": 5300,
      "Ġmonitor": 5301,
      "Ġmajority": 5302,
      "ĠLight": 5303,
      "Ġpoll": 5304,
      "Ġpal": 5305,
      "Ġspring": 5306,
      "ya": 5307,
      "Ġcouldn": 5308,
      "Ġfields": 5309,
      "Ar": 5310,
      "Ġwife": 5311,
      "ĠStreet": 5312,
      "Ġswitch": 5313,
      "Ġassessment": 5314,
      "urally": 5315,
      "Ġagent": 5316,
      "Ġcolle": 5317,
      "Ġcraf": 5318,
      "**": 5319,
      "Ġdesk": 5320,
      "Ġ2015": 5321,
      "Ġprocedure": 5322,
      "ĠMag": 5323,
      "Ġsupported": 5324,
      "Ġstarts": 5325,
      "Ġtransportation": 5326,
      "Ġveget": 5327,
      "Ġcooking": 5328,
      "ĠFore": 5329,
      "ĠUSA": 5330,
      "Ġcorner": 5331,
      "water": 5332,
      "Ġvill": 5333,
      "Ġthoughts": 5334,
      "Ġrat": 5335,
      "ĠSaturday": 5336,
      "ĠAlthough": 5337,
      "ĠCur": 5338,
      "ĠMaster": 5339,
      "Ġrooms": 5340,
      "ĠBook": 5341,
      "Ġefficiently": 5342,
      "Ġnotes": 5343,
      "Ġjew": 5344,
      "ĠClub": 5345,
      "pet": 5346,
      "weight": 5347,
      "date": 5348,
      "pm": 5349,
      "ompl": 5350,
      "Ġknowing": 5351,
      "ointed": 5352,
      "ĠTechnology": 5353,
      "Ġpark": 5354,
      "ota": 5355,
      "Ġunless": 5356,
      "Ġliqu": 5357,
      "Ġconfident": 5358,
      "gr": 5359,
      "gage": 5360,
      "Ġfamous": 5361,
      "Ġpul": 5362,
      "ĠWashington": 5363,
      "Ġfactor": 5364,
      "Ġparticipate": 5365,
      "LC": 5366,
      "coh": 5367,
      "ĠSal": 5368,
      "Ġdelivering": 5369,
      "Ġslightly": 5370,
      "Ġ26": 5371,
      "Ġresearc": 5372,
      "aration": 5373,
      "owl": 5374,
      "Ġsolar": 5375,
      "Ġsoph": 5376,
      "Ġregulatory": 5377,
      "Ġengineering": 5378,
      "Ab": 5379,
      "ka": 5380,
      "orial": 5381,
      "Ġweak": 5382,
      "Ġleaves": 5383,
      "Ġadministr": 5384,
      "omb": 5385,
      "ĠClick": 5386,
      "Ġemployment": 5387,
      "Ġguidelines": 5388,
      "Let": 5389,
      "inger": 5390,
      "Ġwhatever": 5391,
      "Ġanywhere": 5392,
      "Ġeveryday": 5393,
      "Ġpartnership": 5394,
      "Ġstyles": 5395,
      "ston": 5396,
      "Ġrevolution": 5397,
      "Ġappreciate": 5398,
      "look": 5399,
      "Ġconv": 5400,
      "ago": 5401,
      "Ġourselves": 5402,
      "front": 5403,
      "irms": 5404,
      "Ġproductivity": 5405,
      "Ġdecades": 5406,
      "Ġentreprene": 5407,
      "Ġspiritual": 5408,
      "Are": 5409,
      "ĠAM": 5410,
      "icken": 5411,
      "Ġempower": 5412,
      "Ġfol": 5413,
      "Ġunw": 5414,
      "Ġcast": 5415,
      "Ġstated": 5416,
      "Ġexternal": 5417,
      "Ġinfluenc": 5418,
      "Ġhaven": 5419,
      "Ġflat": 5420,
      "Ġreceiving": 5421,
      "Ġknows": 5422,
      "Ġcreativity": 5423,
      "ĠOrgan": 5424,
      "Ġprop": 5425,
      "Ġconcent": 5426,
      "Ġsituations": 5427,
      "ĠLord": 5428,
      "Ġtrig": 5429,
      "Ġimprovement": 5430,
      "Ġcatch": 5431,
      "Ġshift": 5432,
      "Ġsecret": 5433,
      "Ġavailability": 5434,
      "Ġ198": 5435,
      "Ġ80": 5436,
      "men": 5437,
      "Ġplastic": 5438,
      "Ġweekend": 5439,
      "Ġexploring": 5440,
      "Ġtrend": 5441,
      "rooms": 5442,
      "PA": 5443,
      "Ġstake": 5444,
      "Ġanx": 5445,
      "Ġdistribution": 5446,
      "Ġunits": 5447,
      "ĠChar": 5448,
      "Ġfunctional": 5449,
      "Ġcities": 5450,
      "Ġborn": 5451,
      "Ġtrail": 5452,
      "iated": 5453,
      "ĠGra": 5454,
      "Ġconsent": 5455,
      "ximately": 5456,
      "Another": 5457,
      "ĠCost": 5458,
      "Ġspect": 5459,
      "Ġtreatments": 5460,
      "Ġnamed": 5461,
      "Ġoperational": 5462,
      "ĠPlus": 5463,
      "ĠApplic": 5464,
      "Ġreplacement": 5465,
      "pes": 5466,
      "Ġusage": 5467,
      "Ġgenerate": 5468,
      "Ġcombined": 5469,
      "ĠSite": 5470,
      "Ġsettle": 5471,
      "ĠContent": 5472,
      "hab": 5473,
      "ĠWin": 5474,
      "Ġminor": 5475,
      "Ġcompar": 5476,
      "ĠSoft": 5477,
      "ĠAccording": 5478,
      "Ġmedium": 5479,
      "bre": 5480,
      "ĠScience": 5481,
      "Ġoccasion": 5482,
      "Ġoperate": 5483,
      "Ġopened": 5484,
      "met": 5485,
      "Ġven": 5486,
      "ĠMedia": 5487,
      "Ġride": 5488,
      "Ġfacility": 5489,
      "Ġminimal": 5490,
      "Ġpanel": 5491,
      "Ġelement": 5492,
      "Ġgone": 5493,
      "Ġnegot": 5494,
      "ror": 5495,
      "Ġ27": 5496,
      "CH": 5497,
      "Ġagencies": 5498,
      "Ġaffected": 5499,
      "Ġsenior": 5500,
      "Ġrecommendations": 5501,
      "Ġcitizens": 5502,
      "Ġobvious": 5503,
      "Ġschedul": 5504,
      "Ġvolume": 5505,
      "ĠPaul": 5506,
      "21": 5507,
      "ĠStrateg": 5508,
      "Ġhandling": 5509,
      "Se": 5510,
      "ĠSom": 5511,
      "Ġsoil": 5512,
      "ĠRepublic": 5513,
      "CC": 5514,
      "Ġbot": 5515,
      "Ġdining": 5516,
      "ĠWal": 5517,
      "ĠUN": 5518,
      "Ġfinance": 5519,
      "Ġcells": 5520,
      "Ġneighbor": 5521,
      "fast": 5522,
      "Ġvit": 5523,
      "Ġdeals": 5524,
      "Ġexcited": 5525,
      "edy": 5526,
      "ĠMac": 5527,
      "Ġvacc": 5528,
      "Ġquarter": 5529,
      "Ġtopic": 5530,
      "Ġmiles": 5531,
      "otic": 5532,
      "ĠMil": 5533,
      "Ġskill": 5534,
      "Ġpregn": 5535,
      "ĠChild": 5536,
      "Ġportfol": 5537,
      "Ġincent": 5538,
      "Ġdepends": 5539,
      "SA": 5540,
      "ĠLake": 5541,
      "ads": 5542,
      "ĠYOU": 5543,
      "Ġtight": 5544,
      "ĠCreat": 5545,
      "Ġapproved": 5546,
      "Ġhistorical": 5547,
      "Ġmode": 5548,
      "Ġauthority": 5549,
      "ĠFire": 5550,
      "ĠRob": 5551,
      "Ġperspective": 5552,
      "Ġagents": 5553,
      "Ġenhances": 5554,
      "Ġstores": 5555,
      "Ġchannels": 5556,
      "requ": 5557,
      "ĠMot": 5558,
      "Ġwealth": 5559,
      "ĠYes": 5560,
      "Ġexpans": 5561,
      "Dr": 5562,
      "Ġsubstant": 5563,
      "Ġhealing": 5564,
      "ĠEU": 5565,
      "Ġsensitive": 5566,
      "Ġresistance": 5567,
      "field": 5568,
      "osystem": 5569,
      "Ġdisapp": 5570,
      "Ġign": 5571,
      "ĠLike": 5572,
      "Ġevening": 5573,
      "Ġbelong": 5574,
      "ĠSam": 5575,
      "ĠFood": 5576,
      "Ġaccuracy": 5577,
      "rier": 5578,
      "Ġorganic": 5579,
      "Ġinvesting": 5580,
      "Ġmenu": 5581,
      "erves": 5582,
      "Ġsounds": 5583,
      "Ġadministration": 5584,
      "Ġabsolutely": 5585,
      "Ġintelligence": 5586,
      "ĠBig": 5587,
      "Ġprofit": 5588,
      "Ġsurgery": 5589,
      "Ġgun": 5590,
      "igration": 5591,
      "ĠRE": 5592,
      "Ġshot": 5593,
      "pond": 5594,
      "elcome": 5595,
      "Ġdental": 5596,
      "Ġspin": 5597,
      "Ġsophist": 5598,
      "Ġgirls": 5599,
      "ĠId": 5600,
      "Ġpaying": 5601,
      "Ġang": 5602,
      "Ġscr": 5603,
      "uce": 5604,
      "ĠSun": 5605,
      "Ġshel": 5606,
      "Ġinvestments": 5607,
      "Ġelectronic": 5608,
      "Ġraised": 5609,
      "Ġclosely": 5610,
      "Ġclinical": 5611,
      "Ġtotally": 5612,
      "Ġunf": 5613,
      "ĠFoundation": 5614,
      "ĠSum": 5615,
      "ĠBack": 5616,
      "ĠRoad": 5617,
      "Ġappears": 5618,
      "ĠConsider": 5619,
      "la": 5620,
      "ĠHall": 5621,
      "ĠEnter": 5622,
      "ĠParty": 5623,
      "Ġenabling": 5624,
      "Ġclosed": 5625,
      "ĠIll": 5626,
      "ĠExperience": 5627,
      "sure": 5628,
      "with": 5629,
      "Ġsand": 5630,
      "'d": 5631,
      "Ġarticles": 5632,
      "ĠAndroid": 5633,
      "IF": 5634,
      "ĠMad": 5635,
      "Ġvs": 5636,
      "Ġclim": 5637,
      "Ġdevelopers": 5638,
      "Ġtests": 5639,
      "Sc": 5640,
      "Ġexamples": 5641,
      "Ġsuccessfully": 5642,
      "arp": 5643,
      "otal": 5644,
      "Ġrule": 5645,
      "ĠTeam": 5646,
      "riage": 5647,
      "Ġauthorities": 5648,
      "Ġgenuine": 5649,
      "Ġvictim": 5650,
      "ĠFlorida": 5651,
      "istan": 5652,
      "Ġchosen": 5653,
      "omet": 5654,
      "Ġdespite": 5655,
      "Ġreasonable": 5656,
      "Ġdecre": 5657,
      "Ġhonest": 5658,
      "Ġeating": 5659,
      "ĠIndust": 5660,
      "ĠAS": 5661,
      "Ġbrief": 5662,
      "ĠRich": 5663,
      "ĠMarketing": 5664,
      "ĠLand": 5665,
      "Ġtele": 5666,
      "Ġdelay": 5667,
      "Ġframe": 5668,
      "Ġcertific": 5669,
      "craft": 5670,
      "ĠCard": 5671,
      "Ġhus": 5672,
      "ulty": 5673,
      "Ġeligible": 5674,
      "inding": 5675,
      "ĠConnect": 5676,
      "75": 5677,
      "Over": 5678,
      "night": 5679,
      "Ġmeal": 5680,
      "Ġpackaging": 5681,
      "Tr": 5682,
      "Ġlad": 5683,
      "Bl": 5684,
      "Ġnetworks": 5685,
      "ĠTur": 5686,
      "ĠInstead": 5687,
      "ĠDavid": 5688,
      "ĠSil": 5689,
      "ette": 5690,
      "Ġcontrast": 5691,
      "Ġappe": 5692,
      "Ġdurability": 5693,
      "bal": 5694,
      "Ġvast": 5695,
      "Ġintegrated": 5696,
      "Ġanalytics": 5697,
      "uction": 5698,
      "Ġbelief": 5699,
      "Ġhousehold": 5700,
      "oop": 5701,
      "Ġaid": 5702,
      "ĠMex": 5703,
      "Ġpharm": 5704,
      "Ġ2014": 5705,
      "Ġcampaigns": 5706,
      "Ġanticip": 5707,
      "urthermore": 5708,
      "ednes": 5709,
      "ĠâĢ¦": 5710,
      "lette": 5711,
      "Ġconference": 5712,
      "ĠJe": 5713,
      "Ġasset": 5714,
      "Ġinitiatives": 5715,
      "Ġadults": 5716,
      "Ġlaunched": 5717,
      "PC": 5718,
      "Ġoptimal": 5719,
      "OW": 5720,
      "Ġdistance": 5721,
      "Ġyouth": 5722,
      "ĠDisney": 5723,
      "ta": 5724,
      "ĠTre": 5725,
      "cean": 5726,
      "ĠAbout": 5727,
      "ĠFamily": 5728,
      "Ġdesire": 5729,
      "Ġannounce": 5730,
      "orable": 5731,
      "Ġdial": 5732,
      "Ġgear": 5733,
      "orthern": 5734,
      "Ġagg": 5735,
      "ounter": 5736,
      "Ġbuyers": 5737,
      "Ġwitness": 5738,
      "ĠInf": 5739,
      "Ġcolour": 5740,
      "Ġultimately": 5741,
      "bour": 5742,
      "Ġheight": 5743,
      "ĠLong": 5744,
      "ĠJour": 5745,
      "mark": 5746,
      "ether": 5747,
      "Ġbeach": 5748,
      "Ġasking": 5749,
      "never": 5750,
      "ATION": 5751,
      "Ġdogs": 5752,
      "Ġillust": 5753,
      "Ġfantastic": 5754,
      "45": 5755,
      "ificial": 5756,
      "Ġincredible": 5757,
      "Ġhidden": 5758,
      "Ġsurrounding": 5759,
      "ĠMicrosoft": 5760,
      "jack": 5761,
      "ado": 5762,
      "Ġenterprise": 5763,
      "Bu": 5764,
      "neys": 5765,
      "90": 5766,
      "abet": 5767,
      "Ġsevere": 5768,
      "Ġconstantly": 5769,
      "ulture": 5770,
      "Ġintroduced": 5771,
      "Ġchannel": 5772,
      "Ġlights": 5773,
      "ighter": 5774,
      "Ġfoods": 5775,
      "Ġinstalled": 5776,
      "Ġprinciples": 5777,
      "aning": 5778,
      "Ġrand": 5779,
      "Ġathlet": 5780,
      "Ġpodcast": 5781,
      "iled": 5782,
      "Ġstreet": 5783,
      "ĠDown": 5784,
      "Ġpromoting": 5785,
      "ĠCong": 5786,
      "Ġstation": 5787,
      "list": 5788,
      "Ġhearing": 5789,
      "Ġfinished": 5790,
      "Ġrecognized": 5791,
      "Ġdelicious": 5792,
      "NA": 5793,
      "ixt": 5794,
      "Ġincreases": 5795,
      "Ġruns": 5796,
      "ĠRight": 5797,
      "Ġhousing": 5798,
      "Ġforces": 5799,
      "ĠLog": 5800,
      "sm": 5801,
      "Ġissued": 5802,
      "party": 5803,
      "ĠEngland": 5804,
      "CT": 5805,
      "Every": 5806,
      "Ġrain": 5807,
      "Ġfreedom": 5808,
      "bet": 5809,
      "ander": 5810,
      "ocur": 5811,
      "Ġdiscussion": 5812,
      "Ġchurch": 5813,
      "Ġfacing": 5814,
      "Ġcrypto": 5815,
      "ĠWomen": 5816,
      "Ġquiet": 5817,
      "Ġdrink": 5818,
      "Ġforest": 5819,
      "ĠQuest": 5820,
      "IA": 5821,
      "Su": 5822,
      "Ġexposure": 5823,
      "ĠðŁ": 5824,
      "Ġmale": 5825,
      "ĠJames": 5826,
      "Ġtransformation": 5827,
      "Ġinspired": 5828,
      "ĠNetwork": 5829,
      "Ġdurable": 5830,
      "ĠStar": 5831,
      "Ġrandom": 5832,
      "writ": 5833,
      "Ġstability": 5834,
      "Ġbooking": 5835,
      "Ġinput": 5836,
      "ogue": 5837,
      "ĠShop": 5838,
      "Ġsexual": 5839,
      "yn": 5840,
      "According": 5841,
      "Ġchart": 5842,
      "Ġfailure": 5843,
      "Ġrental": 5844,
      "ĠRiver": 5845,
      "ĠKnow": 5846,
      "enefits": 5847,
      "Ġecosystem": 5848,
      "ĠLab": 5849,
      "Ġtempl": 5850,
      "ednesday": 5851,
      "asp": 5852,
      "ĠChurch": 5853,
      "ario": 5854,
      "gor": 5855,
      "Ġwww": 5856,
      "Ġegg": 5857,
      "TP": 5858,
      "Ġrom": 5859,
      "formance": 5860,
      "Ġputting": 5861,
      "Ġer": 5862,
      "Ġcycle": 5863,
      "arency": 5864,
      "Ġupl": 5865,
      "Ġperman": 5866,
      "egu": 5867,
      "Ġcrisis": 5868,
      "Whether": 5869,
      "Ġcater": 5870,
      "ĠSol": 5871,
      "ĠCall": 5872,
      "ĠCentral": 5873,
      "Res": 5874,
      "Ġwire": 5875,
      "iders": 5876,
      "Ġshares": 5877,
      "ĠOffic": 5878,
      "Ġskilled": 5879,
      "rete": 5880,
      "Ġjoint": 5881,
      "Ġbusy": 5882,
      "CA": 5883,
      "ĠNOT": 5884,
      "Ġcomprom": 5885,
      "ĠUsing": 5886,
      "Ġresulting": 5887,
      "ĠCommittee": 5888,
      "ĠPract": 5889,
      "ĠManager": 5890,
      "ĠAcad": 5891,
      "Ġdepartment": 5892,
      "lete": 5893,
      "Ġsea": 5894,
      "Ġrecognition": 5895,
      "Ġcup": 5896,
      "umes": 5897,
      "Ġaccompl": 5898,
      "Ġlimits": 5899,
      "De": 5900,
      "ĠCode": 5901,
      "Ġtransaction": 5902,
      "ĠMount": 5903,
      "ĠExt": 5904,
      "Ġpoker": 5905,
      "Ġversatile": 5906,
      "Ġattorney": 5907,
      "cohol": 5908,
      "Ġretire": 5909,
      "Ġdrivers": 5910,
      "Ġaims": 5911,
      "rey": 5912,
      "ĠFund": 5913,
      "Ġimpressive": 5914,
      "lined": 5915,
      "ĠGame": 5916,
      "ending": 5917,
      "Ġpurchasing": 5918,
      "Ġanimal": 5919,
      "Ġexceed": 5920,
      "Ġplug": 5921,
      "ĠBeach": 5922,
      "Ġcompensation": 5923,
      "ĠCy": 5924,
      "ĠHave": 5925,
      "uesday": 5926,
      "MP": 5927,
      "Ġkid": 5928,
      "ĠStep": 5929,
      "Ġcovers": 5930,
      "Ġstret": 5931,
      "opped": 5932,
      "ursday": 5933,
      "Ġbrother": 5934,
      "ĠFort": 5935,
      "oman": 5936,
      "Ġdish": 5937,
      "Ġhosting": 5938,
      "rating": 5939,
      "Ġrequests": 5940,
      "Ġapproximately": 5941,
      "Ġpublish": 5942,
      "whel": 5943,
      "zing": 5944,
      "ĠEnergy": 5945,
      "Ġenforce": 5946,
      "Ġpromotions": 5947,
      "Ġmissing": 5948,
      "Ġresidential": 5949,
      "ĠCustomer": 5950,
      "gers": 5951,
      "Ġli": 5952,
      "Ġcategory": 5953,
      "Ġraise": 5954,
      "zen": 5955,
      "ĠTax": 5956,
      "ĠCam": 5957,
      "Ġtechnique": 5958,
      "ĠPrem": 5959,
      "ĠLove": 5960,
      "Ġdoors": 5961,
      "Ġemails": 5962,
      "Ġstrengt": 5963,
      "rag": 5964,
      "ĠOpt": 5965,
      "Ġroot": 5966,
      "ĠProper": 5967,
      "Ġbegins": 5968,
      "Ġdu": 5969,
      "Ġerror": 5970,
      "Ġnoted": 5971,
      "Ġsch": 5972,
      "Ġaccepted": 5973,
      "orter": 5974,
      "ĠTherefore": 5975,
      "ĠPet": 5976,
      "ĠAuthor": 5977,
      "ĠBay": 5978,
      "owners": 5979,
      "Ġenhanced": 5980,
      "Ġfootball": 5981,
      "Ġsac": 5982,
      "Ġunivers": 5983,
      "Ġinterior": 5984,
      "Ġsurf": 5985,
      "Many": 5986,
      "ĠBlue": 5987,
      "Ġrewards": 5988,
      "ĠHam": 5989,
      "Ġpositions": 5990,
      "35": 5991,
      "reens": 5992,
      "Ġgolf": 5993,
      "Ġnarr": 5994,
      "Ġalb": 5995,
      "ĠList": 5996,
      "ĠHead": 5997,
      "lastname": 5998,
      "Ġfle": 5999,
      "Ġtow": 6000,
      "ĠNig": 6001,
      "Ġmanual": 6002,
      "Ġbeneficial": 6003,
      "Ġeventually": 6004,
      "PT": 6005,
      "mp": 6006,
      "inated": 6007,
      "quir": 6008,
      "ĠOper": 6009,
      "Ġ70": 6010,
      "ĠCamp": 6011,
      "Ġwhom": 6012,
      "Ġjump": 6013,
      "Ġregional": 6014,
      "ĠMinister": 6015,
      "chain": 6016,
      "Ġsem": 6017,
      "ĠAdmin": 6018,
      "Ġfocusing": 6019,
      "Ġholds": 6020,
      "Ġwatching": 6021,
      "Ġhusband": 6022,
      "ĠCert": 6023,
      "cking": 6024,
      "Ġ500": 6025,
      "ĠAgree": 6026,
      "Ġimplementation": 6027,
      "Ġreference": 6028,
      "Ġdefense": 6029,
      "Ġteachers": 6030,
      "Ġtrained": 6031,
      "ini": 6032,
      "ĠPack": 6033,
      "Ġcoast": 6034,
      "ĠBefore": 6035,
      "Ġpurchased": 6036,
      "ĠSecret": 6037,
      "ĠWebsite": 6038,
      "ĠMiss": 6039,
      "ĠFil": 6040,
      "while": 6041,
      "Ġdim": 6042,
      "Ġreached": 6043,
      "ĠMel": 6044,
      "ĠConst": 6045,
      "Ġinventory": 6046,
      "Tra": 6047,
      "rs": 6048,
      "itage": 6049,
      "Ġburn": 6050,
      "Ġbets": 6051,
      "Ġremoved": 6052,
      "Ġopinion": 6053,
      "Che": 6054,
      "ĠTem": 6055,
      "ĠRock": 6056,
      "Ġdemands": 6057,
      "driven": 6058,
      "88": 6059,
      "Ġterr": 6060,
      "Ġacceler": 6061,
      "Me": 6062,
      "iat": 6063,
      "Ġcooper": 6064,
      "ĠVir": 6065,
      "Ġrestaurant": 6066,
      "ĠDev": 6067,
      "well": 6068,
      "Ġlabel": 6069,
      "Ġlibrary": 6070,
      "Ġsequ": 6071,
      "brid": 6072,
      "Ġfixed": 6073,
      "resents": 6074,
      "ĠThanks": 6075,
      "Ġauto": 6076,
      "ĠAnn": 6077,
      "Ġinteractive": 6078,
      "Ġsubstantial": 6079,
      "ĠBre": 6080,
      "Ġbuildings": 6081,
      "Ġparam": 6082,
      "Ġtexture": 6083,
      "oma": 6084,
      "ĠMedical": 6085,
      "Ġorganis": 6086,
      "ĠAfrican": 6087,
      "olars": 6088,
      "Ġmeat": 6089,
      "Ġhighlights": 6090,
      "BS": 6091,
      "ĠÃ": 6092,
      "ona": 6093,
      "ician": 6094,
      "ĠSen": 6095,
      "Ġvisibility": 6096,
      "ala": 6097,
      "Ġsoul": 6098,
      "Ġsigned": 6099,
      "ĠCanad": 6100,
      "ĠTour": 6101,
      "Ġspons": 6102,
      "han": 6103,
      "zer": 6104,
      "rie": 6105,
      "Ġrot": 6106,
      "Ġregions": 6107,
      "apers": 6108,
      "ĠColor": 6109,
      "Ġholding": 6110,
      "ĠChristian": 6111,
      "ĠFollow": 6112,
      "ĠLou": 6113,
      "Ġattribut": 6114,
      "Ġmagn": 6115,
      "ĠAud": 6116,
      "Ġportfolio": 6117,
      "Ġextended": 6118,
      "Ġalongside": 6119,
      "ĠAngel": 6120,
      "Int": 6121,
      "Ġpriority": 6122,
      "DF": 6123,
      "Ġcommission": 6124,
      "fortunately": 6125,
      "Ġdesired": 6126,
      "Ġvan": 6127,
      "Ġshowed": 6128,
      "Ġpreferred": 6129,
      "rich": 6130,
      "Ġmouth": 6131,
      "ĠMer": 6132,
      "Ġloans": 6133,
      "cies": 6134,
      "Ġfruit": 6135,
      "Ġshut": 6136,
      "Ġsnow": 6137,
      "ĠAL": 6138,
      "Ġcompat": 6139,
      "Ġ35": 6140,
      "ĠControl": 6141,
      "Ġinjuries": 6142,
      "cific": 6143,
      "Ġconclusion": 6144,
      "Ġfilter": 6145,
      "Ġerrors": 6146,
      "Ġsan": 6147,
      "Ġban": 6148,
      "Ġproven": 6149,
      "Ġcandidates": 6150,
      "ĠArab": 6151,
      "ĠLat": 6152,
      "ownt": 6153,
      "Ġtaxes": 6154,
      "Ġrepairs": 6155,
      "ĠHist": 6156,
      "ĠGames": 6157,
      "Ġliability": 6158,
      "Ġmeets": 6159,
      "ĠProcess": 6160,
      "ĠOnly": 6161,
      "Ġultimate": 6162,
      "Ġwalls": 6163,
      "ĠLit": 6164,
      "rip": 6165,
      "Ġoverwhel": 6166,
      "Ġflight": 6167,
      "Ġperformed": 6168,
      "Ġcontemporary": 6169,
      "gorith": 6170,
      "entle": 6171,
      "ĠDub": 6172,
      "Ġcollected": 6173,
      "âĦ": 6174,
      "Ġmut": 6175,
      "ampions": 6176,
      "idity": 6177,
      "ĠVol": 6178,
      "Ġjoined": 6179,
      "oulette": 6180,
      "ĠNat": 6181,
      "Ġremark": 6182,
      "Ġdiam": 6183,
      "Ġconsultation": 6184,
      "secut": 6185,
      "SS": 6186,
      "ultural": 6187,
      "Ġrelief": 6188,
      "Ġcapture": 6189,
      "Sp": 6190,
      "Ġcodes": 6191,
      "Ġengaged": 6192,
      "Ġmeaningful": 6193,
      "Ġcategories": 6194,
      "Or": 6195,
      "level": 6196,
      "Ġminute": 6197,
      "lessly": 6198,
      "Ġoccup": 6199,
      "anta": 6200,
      "ĠUnion": 6201,
      "Ġelectrical": 6202,
      "pact": 6203,
      "Ġ2012": 6204,
      "Ġautomation": 6205,
      "hand": 6206,
      "ĠNF": 6207,
      "ĠGerman": 6208,
      "Ġscientific": 6209,
      "Ġgreatest": 6210,
      "Ġappointment": 6211,
      "can": 6212,
      "Ġrely": 6213,
      "Ġflowers": 6214,
      "working": 6215,
      "Ġofficials": 6216,
      "cont": 6217,
      "Ġlasting": 6218,
      "Ġresearchers": 6219,
      "ora": 6220,
      "ĠBitcoin": 6221,
      "Ġprecision": 6222,
      "ĠGermany": 6223,
      "bi": 6224,
      "Ġthick": 6225,
      "Ġrepresents": 6226,
      "ĠMont": 6227,
      "Ġreliability": 6228,
      "CE": 6229,
      "ait": 6230,
      "etime": 6231,
      "irmed": 6232,
      "ĠMult": 6233,
      "arsh": 6234,
      "edge": 6235,
      "ĠRest": 6236,
      "Ġwouldn": 6237,
      "Ġvisiting": 6238,
      "Ġurban": 6239,
      "ĠRussia": 6240,
      "ga": 6241,
      "ĠPri": 6242,
      "ĠArch": 6243,
      "Ġder": 6244,
      "Ġfeaturing": 6245,
      "raine": 6246,
      "Ġoutput": 6247,
      "Ġ2013": 6248,
      "Ġrig": 6249,
      "orders": 6250,
      "Ġhardware": 6251,
      "Ġwalking": 6252,
      "ĠAD": 6253,
      "Reg": 6254,
      "Ġmilk": 6255,
      "Ġmassive": 6256,
      "Up": 6257,
      "ĠGuide": 6258,
      "Ġlik": 6259,
      "oga": 6260,
      "ressed": 6261,
      "Ġguest": 6262,
      "Ġaccessories": 6263,
      "ĠAustralian": 6264,
      "LA": 6265,
      "Ġ*": 6266,
      "Ġtough": 6267,
      "ĠCond": 6268,
      "ĠGen": 6269,
      "Ġju": 6270,
      "Ġcrim": 6271,
      "Ġpill": 6272,
      "Ġpull": 6273,
      "ĠMax": 6274,
      "Ġstructures": 6275,
      "26": 6276,
      "ĠLic": 6277,
      "Ġinsight": 6278,
      "Ġmeetings": 6279,
      "Ġfraud": 6280,
      "Ind": 6281,
      "Ġargu": 6282,
      "Ġpursu": 6283,
      "Ġconsumption": 6284,
      "Ġsubscrib": 6285,
      "Ġsam": 6286,
      "ĠBen": 6287,
      "ĠLearn": 6288,
      "Tube": 6289,
      "ste": 6290,
      "Ġneighborhood": 6291,
      "\".": 6292,
      "bles": 6293,
      "ii": 6294,
      "wear": 6295,
      "Ġunlock": 6296,
      "Ġ31": 6297,
      "ĠPolicy": 6298,
      "âĦ¢": 6299,
      "col": 6300,
      "Ġpred": 6301,
      "77": 6302,
      "ĠForm": 6303,
      "Ġspecialized": 6304,
      "Ġhundreds": 6305,
      "eping": 6306,
      "Ġupcoming": 6307,
      "Ġeffectiveness": 6308,
      "Ġpainting": 6309,
      "Ġexcite": 6310,
      "Ġabsor": 6311,
      "Ġstylish": 6312,
      "Ġframework": 6313,
      "gl": 6314,
      "erts": 6315,
      "ailable": 6316,
      "Ġcommunicate": 6317,
      "Ġrecognize": 6318,
      "ĠUl": 6319,
      "Ġidentified": 6320,
      "ĠEmploy": 6321,
      "gi": 6322,
      "outhern": 6323,
      "Ġmal": 6324,
      "Ġstaying": 6325,
      "Ġequipped": 6326,
      "Ġnutrition": 6327,
      "owered": 6328,
      "Ġstrict": 6329,
      "Ġcloser": 6330,
      "Ġmoisture": 6331,
      "Ġbike": 6332,
      "Ġthrow": 6333,
      "ĠTool": 6334,
      "Ġqualified": 6335,
      "ĠValley": 6336,
      "ellect": 6337,
      "Ġattacks": 6338,
      "Pr": 6339,
      "uit": 6340,
      "Ġmere": 6341,
      "ĠProm": 6342,
      "ĠMark": 6343,
      "roy": 6344,
      "Ġstable": 6345,
      "Ġsyn": 6346,
      "ĠAsia": 6347,
      "ĠClin": 6348,
      "Ġinteractions": 6349,
      "redit": 6350,
      "ucle": 6351,
      "Ġlinked": 6352,
      "ĠTwitter": 6353,
      "Ġintent": 6354,
      "Ġguess": 6355,
      "Ġimmers": 6356,
      "Ġtap": 6357,
      "Ġmit": 6358,
      "ogether": 6359,
      "ĠQue": 6360,
      "Ġcapable": 6361,
      "verse": 6362,
      "Ġdedication": 6363,
      "Ġsample": 6364,
      "Ġnewest": 6365,
      "Ġanswers": 6366,
      "Ġdamaged": 6367,
      "Ġconducted": 6368,
      "Ġfort": 6369,
      "Ġfollows": 6370,
      "Ġtut": 6371,
      "Ġtiss": 6372,
      "Ġfold": 6373,
      "Ġdiversity": 6374,
      "ĠLive": 6375,
      "point": 6376,
      "Ġcontinuous": 6377,
      "Ġfemale": 6378,
      "Ġlever": 6379,
      "Ġconstruct": 6380,
      "Ġlogo": 6381,
      "Ġwidely": 6382,
      "Ġancient": 6383,
      "ugh": 6384,
      "Ġlies": 6385,
      "BT": 6386,
      "Ġtables": 6387,
      "ĠBrand": 6388,
      "ache": 6389,
      "Ġcasual": 6390,
      "Ġended": 6391,
      "Ġads": 6392,
      "ĠInsurance": 6393,
      "ĠWednesday": 6394,
      "Ġunex": 6395,
      "Ġlawyer": 6396,
      "Ġ2010": 6397,
      "Ġapplying": 6398,
      "Ġintegrity": 6399,
      "Ġreb": 6400,
      "Ġfitness": 6401,
      "made": 6402,
      "sembly": 6403,
      "Ġgameplay": 6404,
      "Ġepisode": 6405,
      "Ġbigger": 6406,
      "ĠPhot": 6407,
      "Ġdetermined": 6408,
      "Ġpip": 6409,
      "ĠWood": 6410,
      "Before": 6411,
      "Phone": 6412,
      "Ġfavour": 6413,
      "ius": 6414,
      "alle": 6415,
      "igned": 6416,
      "ĠEnviron": 6417,
      "Ġanxiety": 6418,
      "how": 6419,
      "under": 6420,
      "Ġemotions": 6421,
      "Ġthreats": 6422,
      "UN": 6423,
      "missions": 6424,
      "pret": 6425,
      "Ġcryptocur": 6426,
      "gent": 6427,
      "etary": 6428,
      "Ġneck": 6429,
      "letter": 6430,
      "Ġbattle": 6431,
      "Ġoptimize": 6432,
      "Ġdatabase": 6433,
      "worth": 6434,
      "Ġpun": 6435,
      "ĠCR": 6436,
      "osm": 6437,
      "Ġwarranty": 6438,
      "yc": 6439,
      "Ġstanding": 6440,
      "Ġvend": 6441,
      "ĠMichael": 6442,
      "Ġmillions": 6443,
      "OC": 6444,
      "ĠThursday": 6445,
      "Ġinvolving": 6446,
      "ĠIsland": 6447,
      "Ġcertified": 6448,
      "ĠSociety": 6449,
      "ĠRussian": 6450,
      "Ġturning": 6451,
      "ĠWhere": 6452,
      "Ġtargeted": 6453,
      "ĠAgreement": 6454,
      "ĠSolutions": 6455,
      "Ġring": 6456,
      "Ġtea": 6457,
      "Ġfirms": 6458,
      "ĠCr": 6459,
      "add": 6460,
      "Ġsafegu": 6461,
      "kin": 6462,
      "agues": 6463,
      "Ġmostly": 6464,
      "Ġtransparency": 6465,
      "Ġfasc": 6466,
      "Ġorganized": 6467,
      "Ġmel": 6468,
      "Ġmand": 6469,
      "ĠEV": 6470,
      "ĠReport": 6471,
      "Ġhospit": 6472,
      "Ġfellow": 6473,
      "Ġworkplace": 6474,
      "Ġdomestic": 6475,
      "Ġarchitecture": 6476,
      "UT": 6477,
      "Ġcareful": 6478,
      "ĠAsk": 6479,
      "Ġpossibly": 6480,
      "Ġkinds": 6481,
      "Ġcomponent": 6482,
      "Ġpoly": 6483,
      "Ġcop": 6484,
      "icul": 6485,
      "Ġweap": 6486,
      "Ġinfect": 6487,
      "novation": 6488,
      "Ġattractive": 6489,
      "Ġteacher": 6490,
      "eah": 6491,
      "Ġmembership": 6492,
      "osit": 6493,
      "Ġscal": 6494,
      "Ġtypical": 6495,
      "Ġbold": 6496,
      "Ġproof": 6497,
      "Ġalgorith": 6498,
      "ĠFOR": 6499,
      "About": 6500,
      "oral": 6501,
      "Ġsud": 6502,
      "Ġapproval": 6503,
      "ele": 6504,
      "ĠEarth": 6505,
      "rypt": 6506,
      "Ġcoordin": 6507,
      "proof": 6508,
      "Ġinspiration": 6509,
      "Ġstim": 6510,
      "Ġcentre": 6511,
      "ographic": 6512,
      "ĠAutom": 6513,
      "Ã¡": 6514,
      "Ġgender": 6515,
      "Ġcalling": 6516,
      "Ġcelebrate": 6517,
      "ĠChief": 6518,
      "Ġgrown": 6519,
      "Ġexcitement": 6520,
      "Ġbodies": 6521,
      "Ġdent": 6522,
      "Ġmap": 6523,
      "ensity": 6524,
      "ĠRev": 6525,
      "Ġtack": 6526,
      "Ġfirstname": 6527,
      "onym": 6528,
      "aught": 6529,
      "ĠProfessional": 6530,
      "PN": 6531,
      "ĠTuesday": 6532,
      "anger": 6533,
      "Ġfeelings": 6534,
      "Ġobjectives": 6535,
      "Ġcriminal": 6536,
      "Ġquot": 6537,
      "Ġdiscovered": 6538,
      "cons": 6539,
      "ola": 6540,
      "ĠPress": 6541,
      "Ġ29": 6542,
      "Most": 6543,
      "Ġcul": 6544,
      "Ġphil": 6545,
      "Ġcarried": 6546,
      "ĠSales": 6547,
      "uts": 6548,
      "Ġintric": 6549,
      "liers": 6550,
      "afe": 6551,
      "Ġpure": 6552,
      "ĠChic": 6553,
      "Ġcommunications": 6554,
      "person": 6555,
      "ĠEqu": 6556,
      "rian": 6557,
      "Ġpossibility": 6558,
      "ĠRegular": 6559,
      "eration": 6560,
      "Ġincl": 6561,
      "idays": 6562,
      "ĠGard": 6563,
      "Ġprocessed": 6564,
      "ocolate": 6565,
      "road": 6566,
      "ĠAlex": 6567,
      "Ġstone": 6568,
      "ĠLast": 6569,
      "ĠRequ": 6570,
      "Ġbroken": 6571,
      "ĠCentre": 6572,
      "Ġrub": 6573,
      "Ġcontrols": 6574,
      "ĠHuman": 6575,
      "rome": 6576,
      "Ġteach": 6577,
      "Ġphase": 6578,
      "Ġconcerned": 6579,
      "rum": 6580,
      "ĠMary": 6581,
      "Ġresolution": 6582,
      "Ġprotocol": 6583,
      "Ġexecutive": 6584,
      "weet": 6585,
      "Ġapproaches": 6586,
      "ĠDistrict": 6587,
      "Ġwheel": 6588,
      "Ġguys": 6589,
      "Ġsudden": 6590,
      "MA": 6591,
      "inder": 6592,
      "aked": 6593,
      "Ġregardless": 6594,
      "ship": 6595,
      "Ġshock": 6596,
      "Ġencounter": 6597,
      "ĠYouTube": 6598,
      "Ġswim": 6599,
      "but": 6600,
      "Ġdealing": 6601,
      "Ġdeeply": 6602,
      "Ġexcellence": 6603,
      "no": 6604,
      "elry": 6605,
      "ideo": 6606,
      "Ġspeaking": 6607,
      "Ġselecting": 6608,
      "mary": 6609,
      "Ġking": 6610,
      "iller": 6611,
      "Ġrelatively": 6612,
      "Ġcommonly": 6613,
      "Ġactively": 6614,
      "Ġdollars": 6615,
      "Ġrestrictions": 6616,
      "ani": 6617,
      "ourcing": 6618,
      "riers": 6619,
      "Ġpossibilities": 6620,
      "Ġenjoying": 6621,
      "Ġsupplies": 6622,
      "ĠON": 6623,
      "Ġstatements": 6624,
      "Ġdocumentation": 6625,
      "Comp": 6626,
      "Ġprimarily": 6627,
      "Ġexpansion": 6628,
      "Ġdinner": 6629,
      "acks": 6630,
      "ĠTom": 6631,
      "Ġmuscle": 6632,
      "33": 6633,
      "ĠBill": 6634,
      "Ġreflects": 6635,
      "Ġcounsel": 6636,
      "lor": 6637,
      "long": 6638,
      "ĠTor": 6639,
      "ĠAward": 6640,
      "amental": 6641,
      "Ġposted": 6642,
      "Ġincredibly": 6643,
      "Ġrecipe": 6644,
      "ĠGrand": 6645,
      "ĠWho": 6646,
      "Ġdistrict": 6647,
      "endar": 6648,
      "Pre": 6649,
      "oses": 6650,
      "Ġamounts": 6651,
      "Ġtact": 6652,
      "erry": 6653,
      "td": 6654,
      "Ġenjoyable": 6655,
      "Ġtitles": 6656,
      "Ġresilience": 6657,
      "ria": 6658,
      "appy": 6659,
      "ĠCarol": 6660,
      "Ġentirely": 6661,
      "iche": 6662,
      "Ġcurrency": 6663,
      "Ġimprovements": 6664,
      "Ġconversations": 6665,
      "Ġremoval": 6666,
      "step": 6667,
      "Ġchair": 6668,
      "Ġbeat": 6669,
      "Ġmail": 6670,
      "aping": 6671,
      "ESS": 6672,
      "ĠFinancial": 6673,
      "nings": 6674,
      "Ġveter": 6675,
      "Ġtruck": 6676,
      "Ġunable": 6677,
      "iest": 6678,
      "Ġpock": 6679,
      "ushed": 6680,
      "Ġpride": 6681,
      "Ġsusp": 6682,
      "Lear": 6683,
      "Ġmob": 6684,
      "Ġequal": 6685,
      "Ġtab": 6686,
      "ading": 6687,
      "Ġnaturally": 6688,
      "Ġpreparation": 6689,
      "gypt": 6690,
      "ĠLocal": 6691,
      "respond": 6692,
      "Ġlistening": 6693,
      "Ġdaughter": 6694,
      "Fi": 6695,
      "gal": 6696,
      "ĠBas": 6697,
      "Ġnoise": 6698,
      "Ġcausing": 6699,
      "ett": 6700,
      "Ġgifts": 6701,
      "ĠPass": 6702,
      "Ġobst": 6703,
      "urning": 6704,
      "Ġuniversity": 6705,
      "Ġagreed": 6706,
      "ĠSpace": 6707,
      "Ġcabin": 6708,
      "ĠLink": 6709,
      "ĠTwo": 6710,
      "isk": 6711,
      "igr": 6712,
      "Ġjustice": 6713,
      "Ġmedicine": 6714,
      "Ġcopyright": 6715,
      "Le": 6716,
      "ĠMass": 6717,
      "Ġextent": 6718,
      "Ġsurve": 6719,
      "Ġsearching": 6720,
      "Ġhabit": 6721,
      "Since": 6722,
      "ĠDI": 6723,
      "Ġprinting": 6724,
      "à¸": 6725,
      "stone": 6726,
      "Ġarg": 6727,
      "Ġflood": 6728,
      "ĠShow": 6729,
      "ĠAnaly": 6730,
      "Ġlessons": 6731,
      "unting": 6732,
      "Ġrecruit": 6733,
      "Ġcustomized": 6734,
      "Ġcheap": 6735,
      "Ġbathroom": 6736,
      "Ġ@": 6737,
      "Ġdied": 6738,
      "28": 6739,
      "you": 6740,
      "Ġdriven": 6741,
      "Ġfostering": 6742,
      "ĠBat": 6743,
      "ĠBoth": 6744,
      "Ġbutter": 6745,
      "Ġsmile": 6746,
      "Ġbehalf": 6747,
      "ĠAR": 6748,
      "urd": 6749,
      "Ġdifferences": 6750,
      "Ġgrass": 6751,
      "Ġsquare": 6752,
      "Ġdoubt": 6753,
      "what": 6754,
      "ĠCorpor": 6755,
      "Ġhappening": 6756,
      "Ġemerging": 6757,
      "Ġsymbols": 6758,
      "pie": 6759,
      "Ġcere": 6760,
      "ĠTim": 6761,
      "ĠDiv": 6762,
      "Ġdefined": 6763,
      "Ġlosses": 6764,
      "ĠCanadian": 6765,
      "Qu": 6766,
      "amic": 6767,
      "Ġincident": 6768,
      "erving": 6769,
      "ifting": 6770,
      "Ġalcohol": 6771,
      "osh": 6772,
      "Ġjur": 6773,
      "Ġaccomp": 6774,
      "Ġsitting": 6775,
      "Ġconstant": 6776,
      "table": 6777,
      "Ġmanagers": 6778,
      "FA": 6779,
      "ki": 6780,
      "Ġpump": 6781,
      "teries": 6782,
      "ĠFranc": 6783,
      "Ġremaining": 6784,
      "Ġseconds": 6785,
      "Ġoutstanding": 6786,
      "Ġinfo": 6787,
      "ossible": 6788,
      "ĠBuy": 6789,
      "CO": 6790,
      "Ġleather": 6791,
      "Ġeditor": 6792,
      "Ġcriteria": 6793,
      "Ġprotein": 6794,
      "hors": 6795,
      "istant": 6796,
      "Ġinvestigation": 6797,
      "see": 6798,
      "Ġcommand": 6799,
      "ĠExecut": 6800,
      "forward": 6801,
      "Ġarm": 6802,
      "Ġelection": 6803,
      "ĠAtl": 6804,
      "Man": 6805,
      "Ġcro": 6806,
      "Ġshoes": 6807,
      "isher": 6808,
      "lements": 6809,
      "Ġmeals": 6810,
      "Ġreduction": 6811,
      "Ġmatches": 6812,
      "Ġrestaurants": 6813,
      "Ġaesthetic": 6814,
      "Ġarray": 6815,
      "Ġillness": 6816,
      "Ġhiring": 6817,
      "ĠBonus": 6818,
      "azine": 6819,
      "Ġviolence": 6820,
      "kay": 6821,
      "ĠGrow": 6822,
      "ĠOh": 6823,
      "Ġsetup": 6824,
      "ĠUnderstanding": 6825,
      "ĠVirgin": 6826,
      "ĠSer": 6827,
      "ĠRad": 6828,
      "Ġconsideration": 6829,
      "ĠSmart": 6830,
      "Ġdisrupt": 6831,
      "Ġrealize": 6832,
      "ĠAnother": 6833,
      "ĠSupp": 6834,
      "Ġlicensed": 6835,
      "ĠDi": 6836,
      "Ġseemed": 6837,
      "ograp": 6838,
      "anged": 6839,
      "Ġtreated": 6840,
      "Ġportion": 6841,
      "Ġestablishment": 6842,
      "Ġrevealed": 6843,
      "Ġmanufacturers": 6844,
      "Fin": 6845,
      "urious": 6846,
      "Ġdamages": 6847,
      "Ġdangerous": 6848,
      "Ġouts": 6849,
      "ĠKore": 6850,
      "inent": 6851,
      "Ġstre": 6852,
      "Ġvirus": 6853,
      "alled": 6854,
      "Ġticket": 6855,
      "Press": 6856,
      "Ġbought": 6857,
      "ĠTru": 6858,
      "ĠWestern": 6859,
      "Ġoutcome": 6860,
      "Ġfocuses": 6861,
      "Ġmortgage": 6862,
      "iner": 6863,
      "ingu": 6864,
      "Ġgentle": 6865,
      "ĠHosp": 6866,
      "umps": 6867,
      "Ġpersonality": 6868,
      "Ġparticipation": 6869,
      "Ġstreaming": 6870,
      "Ġstruggle": 6871,
      "Ġenthusiasts": 6872,
      "AG": 6873,
      "arks": 6874,
      "ctors": 6875,
      "rence": 6876,
      "ealand": 6877,
      "esp": 6878,
      "ĠCD": 6879,
      "ials": 6880,
      "ĠNor": 6881,
      "Ġarrest": 6882,
      "Ġfaced": 6883,
      "Ġsectors": 6884,
      "27": 6885,
      "itar": 6886,
      "reek": 6887,
      "Ġscript": 6888,
      "ĠRef": 6889,
      "Ġearned": 6890,
      "xy": 6891,
      "Ġpil": 6892,
      "iden": 6893,
      "Ġformal": 6894,
      "Ġplanned": 6895,
      "Ġevaluation": 6896,
      "Ġexplained": 6897,
      "otton": 6898,
      "achel": 6899,
      "Ġmerch": 6900,
      "%.": 6901,
      "First": 6902,
      "ĠFed": 6903,
      "ĠGal": 6904,
      "Ġclothing": 6905,
      "Ġexperiment": 6906,
      "Ġdiscipl": 6907,
      "ĠUser": 6908,
      "Ġisland": 6909,
      "ĠEr": 6910,
      "Ġlegit": 6911,
      "Ġcharacteristics": 6912,
      "Ġreferred": 6913,
      "Ġstrengthen": 6914,
      "!âĢĿ": 6915,
      "Ġera": 6916,
      "Ġped": 6917,
      "Ġap": 6918,
      "Ġ2011": 6919,
      "ĠUkraine": 6920,
      "Ġappeared": 6921,
      "cher": 6922,
      "Ġdie": 6923,
      "Ġreson": 6924,
      "Ġbless": 6925,
      "Ġsafely": 6926,
      "Ġprioritize": 6927,
      "icit": 6928,
      "âĢļ": 6929,
      "Ġreduces": 6930,
      "class": 6931,
      "Ġtheory": 6932,
      "Ġrefresh": 6933,
      "Ġunexpected": 6934,
      ".âĢĻ": 6935,
      "ĠDoes": 6936,
      "van": 6937,
      "ena": 6938,
      "ĠBi": 6939,
      "Ġuns": 6940,
      "Ġsaving": 6941,
      "berg": 6942,
      "Ġpersonally": 6943,
      "Ġroute": 6944,
      "Ġsides": 6945,
      "Ġhire": 6946,
      "Ġseat": 6947,
      "Ġsuc": 6948,
      "luded": 6949,
      "ords": 6950,
      "ĠAT": 6951,
      "ĠBud": 6952,
      "ĠHand": 6953,
      "pons": 6954,
      "Ġthemes": 6955,
      "ĠQuality": 6956,
      "including": 6957,
      "Ġcandidate": 6958,
      "Ġiconic": 6959,
      "Ġloyalty": 6960,
      "Com": 6961,
      "SE": 6962,
      "Ġpurchases": 6963,
      "Ġrecorded": 6964,
      "Ġseamlessly": 6965,
      "01": 6966,
      "Ġequity": 6967,
      "ĠLeague": 6968,
      "Ġachieved": 6969,
      "ĠChicago": 6970,
      "ĠThom": 6971,
      "Ġcampus": 6972,
      "ĠRemember": 6973,
      "Ġupload": 6974,
      "ĠSC": 6975,
      "Ġalt": 6976,
      "ĠPM": 6977,
      "Ġwellness": 6978,
      "Ġinteraction": 6979,
      "Ġproposed": 6980,
      "ĠJapanese": 6981,
      "Ġtun": 6982,
      "Ġvisible": 6983,
      "ĠCloud": 6984,
      "Ġmarriage": 6985,
      "Ġnearby": 6986,
      "Ġmaximize": 6987,
      "ĠSystems": 6988,
      "Ġconsequences": 6989,
      "ĠCongress": 6990,
      "âĢĺ": 6991,
      "Ġlosing": 6992,
      "gend": 6993,
      "eller": 6994,
      "Ġends": 6995,
      "Ġimplementing": 6996,
      "Ġuncertain": 6997,
      "ĠSafety": 6998,
      "vity": 6999,
      "avy": 7000,
      "Ġconfirmed": 7001,
      "Ġstain": 7002,
      "ĠKen": 7003,
      "Ġenjoyed": 7004,
      "Ġzero": 7005,
      "Ġfigures": 7006,
      "ellectual": 7007,
      "ĠEconom": 7008,
      "ĠVer": 7009,
      "Ġcharged": 7010,
      "ĠConf": 7011,
      "wing": 7012,
      "Ġton": 7013,
      "Ġstead": 7014,
      "Ġstored": 7015,
      "Ġcyber": 7016,
      "Rec": 7017,
      "ingly": 7018,
      "ĠMach": 7019,
      "Ġdates": 7020,
      "Ġexpressed": 7021,
      "ĠLimited": 7022,
      "Ġcrowd": 7023,
      "zes": 7024,
      "hire": 7025,
      "lers": 7026,
      "Ġstudio": 7027,
      "Ġ45": 7028,
      "Ġfrust": 7029,
      "Ġreligious": 7030,
      "which": 7031,
      "ĠRober": 7032,
      "Ġspr": 7033,
      "ĠVict": 7034,
      "ĠTraining": 7035,
      "ipt": 7036,
      "Ġimpacts": 7037,
      "Ġfundamental": 7038,
      "Ġflavors": 7039,
      "Use": 7040,
      "Ġ...": 7041,
      "Ġbid": 7042,
      "ĠTimes": 7043,
      "ĠCreate": 7044,
      "Ġguard": 7045,
      "Ġaddressing": 7046,
      "IR": 7047,
      "ĠWild": 7048,
      "ĠFederal": 7049,
      "Ġkit": 7050,
      "Ġprogramme": 7051,
      "Ġinitiative": 7052,
      "Ġodds": 7053,
      "Ġgall": 7054,
      "Ġwearing": 7055,
      "Ġemployer": 7056,
      "Ġquote": 7057,
      "intage": 7058,
      "Ġmarked": 7059,
      "Ġsucceed": 7060,
      "Ġnative": 7061,
      "nowned": 7062,
      "plete": 7063,
      "Ġutilize": 7064,
      "Just": 7065,
      "inating": 7066,
      "ĠBal": 7067,
      "Ġsky": 7068,
      "ano": 7069,
      "uis": 7070,
      "Ġsharp": 7071,
      "Ġworkflow": 7072,
      "Ġowned": 7073,
      "Ġofferings": 7074,
      "Thank": 7075,
      "Ġplanet": 7076,
      "ĠAmericans": 7077,
      "Ġachieving": 7078,
      "ĠLearning": 7079,
      "Ġrapidly": 7080,
      "market": 7081,
      "Ġwhenever": 7082,
      "Ġpromise": 7083,
      "Ġjudge": 7084,
      "Ġdescription": 7085,
      "Ġperiods": 7086,
      "Ġsuggests": 7087,
      "ĠSmith": 7088,
      "tr": 7089,
      "Ġforg": 7090,
      "rad": 7091,
      "Ġdefault": 7092,
      "Ġstronger": 7093,
      "Ġhomeowners": 7094,
      "Ġmotion": 7095,
      "Ġcomplain": 7096,
      "Ġlegislation": 7097,
      "mans": 7098,
      "ĠView": 7099,
      "Ġmemories": 7100,
      "Ġsupplement": 7101,
      "ĠMusic": 7102,
      "Ġstars": 7103,
      "ĠZealand": 7104,
      "Ġbalanced": 7105,
      "dep": 7106,
      "ĠCat": 7107,
      "anda": 7108,
      "Ġconsistently": 7109,
      "Ġevaluate": 7110,
      "Ġworse": 7111,
      "ecurity": 7112,
      "Ġmedication": 7113,
      "abetes": 7114,
      "Ġaccord": 7115,
      "ventional": 7116,
      "Ġprinted": 7117,
      "Ġranking": 7118,
      "Ġdelivers": 7119,
      "ĠColl": 7120,
      "profit": 7121,
      "alse": 7122,
      "Ġmood": 7123,
      "Ġlived": 7124,
      "ĠSeries": 7125,
      "Ġalike": 7126,
      "Ġexperiencing": 7127,
      "ĠFrance": 7128,
      "cript": 7129,
      "ĠHelp": 7130,
      "Cons": 7131,
      "Ġspeech": 7132,
      "Ġfits": 7133,
      "Ġbills": 7134,
      "ĠHaw": 7135,
      "Ġinstant": 7136,
      "Ġcomplement": 7137,
      "Ġrising": 7138,
      "Ġparking": 7139,
      "Ġmitig": 7140,
      "Ġwet": 7141,
      "ĠSP": 7142,
      "Ġabuse": 7143,
      "away": 7144,
      "Ġtournam": 7145,
      "ĠProtection": 7146,
      "Te": 7147,
      "Ġfo": 7148,
      "stream": 7149,
      "ĠPot": 7150,
      "ĠHill": 7151,
      "Ġcoach": 7152,
      "Ġextract": 7153,
      "ĠExplore": 7154,
      "Ġpackages": 7155,
      "Ġcrafted": 7156,
      "ĠItal": 7157,
      "Ġsplit": 7158,
      "Ġdownt": 7159,
      "ĠNY": 7160,
      "Ġguy": 7161,
      "Ġforecast": 7162,
      "Ġsophisticated": 7163,
      "Ġfro": 7164,
      "Ġear": 7165,
      "ĠWay": 7166,
      "Ġaddresses": 7167,
      "Ġelegance": 7168,
      "Ġinner": 7169,
      "Ġconver": 7170,
      "Ġconfidential": 7171,
      "Ġcorrectly": 7172,
      "Ġestimated": 7173,
      "OD": 7174,
      "athy": 7175,
      "rid": 7176,
      "ua": 7177,
      "Ġvisa": 7178,
      "Ġkick": 7179,
      "Ġsurprise": 7180,
      "Ġsuppliers": 7181,
      "ĠOrder": 7182,
      "Ġconflict": 7183,
      "ĠMexico": 7184,
      "ket": 7185,
      "Ġnur": 7186,
      "Ġadequ": 7187,
      "hered": 7188,
      "ĠCook": 7189,
      "Ġemissions": 7190,
      "Ġturns": 7191,
      "Ġweekly": 7192,
      "Ġmagic": 7193,
      "Ġelegant": 7194,
      "ught": 7195,
      "29": 7196,
      "ae": 7197,
      "igan": 7198,
      "ĠIde": 7199,
      "ivating": 7200,
      "Ġwriter": 7201,
      "Ġofficers": 7202,
      "world": 7203,
      "Ġpenal": 7204,
      "Ġvacation": 7205,
      "Understanding": 7206,
      "Ġtear": 7207,
      "Ġpin": 7208,
      "Ġmovies": 7209,
      "levision": 7210,
      "effective": 7211,
      "ĠPan": 7212,
      "uma": 7213,
      "Ġperforming": 7214,
      "Ġtested": 7215,
      "Ġprospect": 7216,
      "Ġevolving": 7217,
      "Disc": 7218,
      "Ġsending": 7219,
      "Ġspark": 7220,
      "Ġbroader": 7221,
      "Ġpleasure": 7222,
      "arrow": 7223,
      "ĠEgypt": 7224,
      "Ġintu": 7225,
      "Ġille": 7226,
      "Ġworkforce": 7227,
      "ĠShipping": 7228,
      "Ġboat": 7229,
      "Ġembrace": 7230,
      "Ġfoster": 7231,
      "Rem": 7232,
      "Ġchicken": 7233,
      "Ġ197": 7234,
      "Ġcrafts": 7235,
      "ye": 7236,
      "Ġhero": 7237,
      "Ġphotograph": 7238,
      "Ġjoining": 7239,
      "Ġpermanent": 7240,
      "Am": 7241,
      "Ġsauce": 7242,
      "Ġagric": 7243,
      "ĠiPhone": 7244,
      "Ġexpression": 7245,
      "Ġpercentage": 7246,
      "Ġradio": 7247,
      "Ġelectricity": 7248,
      "Free": 7249,
      "Ġbanks": 7250,
      "anish": 7251,
      "Ġalle": 7252,
      "Ġdiss": 7253,
      "Ġindicate": 7254,
      "Ġsubmitted": 7255,
      "Ġacquis": 7256,
      "pay": 7257,
      "Ġcaught": 7258,
      "Ġreject": 7259,
      "ĠLtd": 7260,
      "Ġpresents": 7261,
      "Ġtells": 7262,
      "Key": 7263,
      "nic": 7264,
      "Ġdance": 7265,
      "author": 7266,
      "Ġconcrete": 7267,
      "Ġsuperior": 7268,
      "Ġtone": 7269,
      "Ġarrive": 7270,
      "ourage": 7271,
      "Ġsilver": 7272,
      "Ġdefend": 7273,
      "ĠAcademy": 7274,
      "Ġretirement": 7275,
      "Ġblow": 7276,
      "Ġdecade": 7277,
      "Ġartificial": 7278,
      "Ġcontracts": 7279,
      "Ġidentifying": 7280,
      "Ġther": 7281,
      "Ġtimely": 7282,
      "REE": 7283,
      "Ġalbum": 7284,
      "RS": 7285,
      "Ġast": 7286,
      "orous": 7287,
      "ench": 7288,
      "Ġnorth": 7289,
      "eling": 7290,
      "ribe": 7291,
      "prises": 7292,
      "Ġconversion": 7293,
      "Last": 7294,
      "pack": 7295,
      "âĢĻ.": 7296,
      "Ġcorrespond": 7297,
      "Any": 7298,
      "erning": 7299,
      "Ġdive": 7300,
      "Ġfilms": 7301,
      "During": 7302,
      "ĠCON": 7303,
      "Ġages": 7304,
      "Ġobtained": 7305,
      "esome": 7306,
      "ĠSand": 7307,
      "....": 7308,
      "Ġchecking": 7309,
      "Ġsolve": 7310,
      "Ġarrived": 7311,
      "ĠParis": 7312,
      "Ġsouth": 7313,
      "Ġtooth": 7314,
      "Ġforth": 7315,
      "Ġinterpret": 7316,
      "Ġprotecting": 7317,
      "uclear": 7318,
      "ĠMuse": 7319,
      "Ġbreaking": 7320,
      "Ġmarks": 7321,
      "ĠLouis": 7322,
      "Ġmold": 7323,
      "Ġtransparent": 7324,
      "Pal": 7325,
      "Ġtou": 7326,
      "Ġwins": 7327,
      "isms": 7328,
      "Ġsubscription": 7329,
      "othes": 7330,
      "Ġcann": 7331,
      "ĠSelect": 7332,
      "bration": 7333,
      "Ġstretch": 7334,
      "Ġdispos": 7335,
      "Ġairport": 7336,
      "Ġdreams": 7337,
      "ĠMS": 7338,
      "ĠLos": 7339,
      "Ġpresentation": 7340,
      "Ġobjects": 7341,
      "Per": 7342,
      "law": 7343,
      "rates": 7344,
      "Ġimpossible": 7345,
      "Ġacts": 7346,
      "Ġbowl": 7347,
      "Ġ2008": 7348,
      "Ġautomated": 7349,
      "Ġdiscussed": 7350,
      "Ġcontributions": 7351,
      "uct": 7352,
      "Ġacid": 7353,
      "Ġkeywords": 7354,
      "ĠEmb": 7355,
      "Ġcrime": 7356,
      "Ġdiseases": 7357,
      "Ġhouses": 7358,
      "sle": 7359,
      "uing": 7360,
      "isdict": 7361,
      "Ġsignal": 7362,
      "Ġpopularity": 7363,
      "Ġyounger": 7364,
      "ĠSH": 7365,
      "Ġpermission": 7366,
      "Ġundert": 7367,
      "Ġdiscussions": 7368,
      "kers": 7369,
      "Ġcertificate": 7370,
      "ĠJud": 7371,
      "ĠStore": 7372,
      "Ġrul": 7373,
      "ĠPlatform": 7374,
      "rogen": 7375,
      "ruption": 7376,
      "rolog": 7377,
      "Ġreaching": 7378,
      "Ġlimitations": 7379,
      "Fe": 7380,
      "osoph": 7381,
      "manship": 7382,
      "Custom": 7383,
      "OP": 7384,
      "ĠPac": 7385,
      "ĠMoney": 7386,
      "Ġvote": 7387,
      "Ġverify": 7388,
      "Ġgraphics": 7389,
      "DS": 7390,
      "irty": 7391,
      "Ġaccounting": 7392,
      "Ġfrequent": 7393,
      "Ġrecording": 7394,
      "Ġversions": 7395,
      "using": 7396,
      "ulf": 7397,
      "Ġmemorable": 7398,
      "Ġmoves": 7399,
      "Ġupgrade": 7400,
      "do": 7401,
      "ita": 7402,
      "ĠNon": 7403,
      "ĠChair": 7404,
      "Ġofficer": 7405,
      "ĠApplication": 7406,
      "Ġbact": 7407,
      "Ġtickets": 7408,
      "Ġentered": 7409,
      "Ġstakeholders": 7410,
      "ĠSoftware": 7411,
      "ership": 7412,
      "Ġsubsequ": 7413,
      "atching": 7414,
      "Ġpassionate": 7415,
      "Ġsufficient": 7416,
      "Ġshipped": 7417,
      "Who": 7418,
      "Ġtrouble": 7419,
      "othe": 7420,
      "urities": 7421,
      "ĠThose": 7422,
      "Ġownership": 7423,
      "Ġsolely": 7424,
      "Ke": 7425,
      "aming": 7426,
      "Ġcomply": 7427,
      "ĠVe": 7428,
      "Ġcenters": 7429,
      "Ġconcepts": 7430,
      "ĠDemocr": 7431,
      "Ġbottle": 7432,
      "Ġprohib": 7433,
      "ĠHR": 7434,
      "ĠQuestions": 7435,
      "Ġfeatured": 7436,
      "Ġfailed": 7437,
      "ĠCra": 7438,
      "ĠRights": 7439,
      "ĠItaly": 7440,
      "Ġsynt": 7441,
      "Ġlegacy": 7442,
      "Ġcritic": 7443,
      "criptions": 7444,
      "fers": 7445,
      "Ġmir": 7446,
      "Ġyes": 7447,
      "ĠMade": 7448,
      "Ġabilities": 7449,
      "ĠArts": 7450,
      "ĠNext": 7451,
      "Ġdegrees": 7452,
      "Ġcolleagues": 7453,
      "ĠPRO": 7454,
      "ĠâĢ¢": 7455,
      "Ġguides": 7456,
      "Ġrequirement": 7457,
      "Ġpreparing": 7458,
      "ĠImpro": 7459,
      "Ġadoption": 7460,
      "Ġrenowned": 7461,
      "ĠBur": 7462,
      "Ġcompare": 7463,
      "Ġfinancing": 7464,
      "ERS": 7465,
      "Ġutilizing": 7466,
      "okes": 7467,
      "Ġwid": 7468,
      "Ġenroll": 7469,
      "Ġpurs": 7470,
      "ĠConsult": 7471,
      "ras": 7472,
      "ĠMobile": 7473,
      "ĠBer": 7474,
      "ĠJoin": 7475,
      "EA": 7476,
      "Ġeco": 7477,
      "ĠSearch": 7478,
      "Ġtechnological": 7479,
      "ĠAPI": 7480,
      "Ġgap": 7481,
      "Ġforced": 7482,
      "Ġhes": 7483,
      "ĠPak": 7484,
      "Ġbuyer": 7485,
      "Ġaimed": 7486,
      "Â°": 7487,
      "Ġallerg": 7488,
      "obby": 7489,
      "Ġtemporary": 7490,
      "36": 7491,
      "44": 7492,
      "Ġplate": 7493,
      "Ġunlike": 7494,
      "Ġpace": 7495,
      "through": 7496,
      "inds": 7497,
      "Ġtum": 7498,
      "asant": 7499,
      "ĠDom": 7500,
      "Ġintense": 7501,
      "Ġkilled": 7502,
      "Ġunderst": 7503,
      "Ġhabits": 7504,
      "ders": 7505,
      "real": 7506,
      "Ġtherap": 7507,
      "Ġpasseng": 7508,
      "Ġhistoric": 7509,
      "See": 7510,
      "Ġscope": 7511,
      "Ġ300": 7512,
      "Ġnine": 7513,
      "ĠWorks": 7514,
      "Ġdrugs": 7515,
      "asm": 7516,
      "Ġconscious": 7517,
      "ĠKingdom": 7518,
      "Ġjewelry": 7519,
      "ĠSU": 7520,
      "ĠInteg": 7521,
      "Ġmistakes": 7522,
      "Ġprove": 7523,
      "Ġprovision": 7524,
      "phones": 7525,
      "vas": 7526,
      "ĠTit": 7527,
      "Ġexch": 7528,
      "Although": 7529,
      "Ġsatisfied": 7530,
      "Ġremarkable": 7531,
      "ĠTreat": 7532,
      "Ġarts": 7533,
      "ĠEnjoy": 7534,
      "Ġthrive": 7535,
      "anes": 7536,
      "Ġlets": 7537,
      "ĠSports": 7538,
      "ĠTravel": 7539,
      "umbing": 7540,
      "erate": 7541,
      "Ġnom": 7542,
      "ĠBible": 7543,
      "ĠRoyal": 7544,
      "Ġwash": 7545,
      "ĠExam": 7546,
      "cycle": 7547,
      "Ġdiamond": 7548,
      "Ġjurisdict": 7549,
      "Ġyield": 7550,
      "ĠSuch": 7551,
      "utter": 7552,
      "Ġnutri": 7553,
      "Wor": 7554,
      "Ġrough": 7555,
      "Ġfacilitate": 7556,
      "Ġclarity": 7557,
      "egas": 7558,
      "Ġcontributing": 7559,
      "ĠMoreover": 7560,
      "Ġtiny": 7561,
      "ession": 7562,
      "Ġoffices": 7563,
      "Ġexport": 7564,
      "95": 7565,
      "Ġfly": 7566,
      "Ġcomplexity": 7567,
      "Ġhub": 7568,
      "istent": 7569,
      "Ġspecialist": 7570,
      "Ġbreast": 7571,
      "Ġresponses": 7572,
      "Ġparticipating": 7573,
      "ĠCA": 7574,
      "ĠEnh": 7575,
      "Ġpowder": 7576,
      "west": 7577,
      "ĠFull": 7578,
      "Ġdecent": 7579,
      "Ġembra": 7580,
      "Ġmixed": 7581,
      "Ġdiscounts": 7582,
      "Ġheritage": 7583,
      "Ġsignificance": 7584,
      "Ġcertification": 7585,
      "ĠBuilding": 7586,
      "Ġaffiliate": 7587,
      "Ġscheduled": 7588,
      "Other": 7589,
      "ĠIre": 7590,
      "Ġhaz": 7591,
      "assion": 7592,
      "ĠGeorge": 7593,
      "\",": 7594,
      "iary": 7595,
      "Ġdishes": 7596,
      "Ġassum": 7597,
      "Ġgenerated": 7598,
      "ĠMen": 7599,
      "Ġcheese": 7600,
      "Ġmusical": 7601,
      "ĠAgency": 7602,
      "Ġscheme": 7603,
      "Ġpiv": 7604,
      "ĠPlace": 7605,
      "Ġfulfill": 7606,
      "host": 7607,
      "Ġfif": 7608,
      "Ġheating": 7609,
      "ĠDen": 7610,
      "Ġchronic": 7611,
      "izable": 7612,
      "Ġ2009": 7613,
      "alysis": 7614,
      "Ġdust": 7615,
      "ĠPR": 7616,
      "ults": 7617,
      "apes": 7618,
      "ĠâĤ¬": 7619,
      "ĠSar": 7620,
      "ĠFair": 7621,
      "ĠFestival": 7622,
      "Ġhonor": 7623,
      "Ġbelieved": 7624,
      "RL": 7625,
      "Well": 7626,
      "Ġfest": 7627,
      "ĠSS": 7628,
      "Ġstages": 7629,
      "Ġwinner": 7630,
      "Ġcommittee": 7631,
      "Even": 7632,
      "UL": 7633,
      "ĠTry": 7634,
      "olving": 7635,
      "Ġherself": 7636,
      "Ġtemperatures": 7637,
      "she": 7638,
      "Ġbread": 7639,
      "Ġusual": 7640,
      "Inst": 7641,
      "Ġstraightforward": 7642,
      "Part": 7643,
      "uous": 7644,
      "ĠOld": 7645,
      "ĠStay": 7646,
      "Ġrecover": 7647,
      "Ġbridge": 7648,
      "Ġholidays": 7649,
      "Ġimagine": 7650,
      "Each": 7651,
      "Ġ=": 7652,
      "itate": 7653,
      "asters": 7654,
      "Ġaccessibility": 7655,
      "ĠIdent": 7656,
      "osite": 7657,
      "Ġinches": 7658,
      "Ġvisits": 7659,
      "Ġgrab": 7660,
      "Ġappealing": 7661,
      "Ġgarage": 7662,
      "ĠDubai": 7663,
      "Ġ>": 7664,
      "Ġreels": 7665,
      "Ġdesigner": 7666,
      "Ġresponsibilities": 7667,
      "ented": 7668,
      "Ġgate": 7669,
      "ĠDog": 7670,
      "emed": 7671,
      "Ġspots": 7672,
      "Check": 7673,
      "ĠVirginia": 7674,
      "Ġaccordance": 7675,
      "Ġsalt": 7676,
      "ĠMartin": 7677,
      "Ġhorm": 7678,
      "Ġleverage": 7679,
      "Ġdealer": 7680,
      "Ġlogistics": 7681,
      "Ġanalyze": 7682,
      "Ġintroduce": 7683,
      "Ġcomplicated": 7684,
      "fe": 7685,
      "makers": 7686,
      "Ġsick": 7687,
      "isters": 7688,
      "Ġlogin": 7689,
      "Ġhttp": 7690,
      "rd": 7691,
      "ĠChat": 7692,
      "EST": 7693,
      "Ġscholars": 7694,
      "AA": 7695,
      "page": 7696,
      "Ġintention": 7697,
      "Ġbreakfast": 7698,
      "Ġgained": 7699,
      "ĠExecutive": 7700,
      "onge": 7701,
      "eting": 7702,
      "ĠCH": 7703,
      "Ġtaught": 7704,
      "ferent": 7705,
      "Ġfindings": 7706,
      "ĠImpact": 7707,
      "Ġmountain": 7708,
      "Ġentrepreneurs": 7709,
      "ĠJournal": 7710,
      "Ġyellow": 7711,
      "Ġrating": 7712,
      "Ġauthors": 7713,
      "Ġshowcase": 7714,
      "Ġfru": 7715,
      "Ġreform": 7716,
      "urb": 7717,
      "ognitive": 7718,
      "ĠReturn": 7719,
      "ĠItalian": 7720,
      "Ġid": 7721,
      "Ġwag": 7722,
      "ĠEnt": 7723,
      "Ġletters": 7724,
      "een": 7725,
      "ÃŃ": 7726,
      "isco": 7727,
      "Ġtag": 7728,
      "inate": 7729,
      "Ġsuffering": 7730,
      "ĠLow": 7731,
      "Ġgreatly": 7732,
      "Ġfounded": 7733,
      "Ġsupposed": 7734,
      "mitted": 7735,
      "Ġlapt": 7736,
      "ĠWi": 7737,
      "Ġimper": 7738,
      "esides": 7739,
      "utch": 7740,
      "Ġseed": 7741,
      "oven": 7742,
      "Ġcombines": 7743,
      "Where": 7744,
      "Ġtradition": 7745,
      "Ġphr": 7746,
      "ocated": 7747,
      "Ġdevelopments": 7748,
      "Ġdesigners": 7749,
      "Ġemployers": 7750,
      "Ġdisplayed": 7751,
      "Ġsongs": 7752,
      "Ġobligations": 7753,
      "ĠEngineering": 7754,
      "Ġwider": 7755,
      "roc": 7756,
      "ĠInstall": 7757,
      "Ġdescribe": 7758,
      "Ġescape": 7759,
      "Ġsafeguard": 7760,
      "ilst": 7761,
      "ĠSqu": 7762,
      "Ġrid": 7763,
      "Ġgenerations": 7764,
      "Ġpollut": 7765,
      "ĠSecretary": 7766,
      "Ġproducing": 7767,
      "Ġorganisation": 7768,
      "ĠAvoid": 7769,
      "Ġbirds": 7770,
      "BI": 7771,
      "HS": 7772,
      "Ġriver": 7773,
      "ĠWeek": 7774,
      "Ġmovements": 7775,
      "Ġcovering": 7776,
      "ĠCross": 7777,
      "oding": 7778,
      "Ġtwice": 7779,
      "Ġartistic": 7780,
      "ĠSpanish": 7781,
      "ĠAngeles": 7782,
      "Ġ196": 7783,
      "ĠMiddle": 7784,
      "Ġfacts": 7785,
      "ĠMuseum": 7786,
      "otive": 7787,
      "Ġevolution": 7788,
      "Ġmarried": 7789,
      "ĠChildren": 7790,
      "Ġfishing": 7791,
      "state": 7792,
      "lude": 7793,
      "Ġpreventing": 7794,
      "Ġmissed": 7795,
      "ulating": 7796,
      "abis": 7797,
      "ĠShould": 7798,
      "Ġpuzz": 7799,
      "Aut": 7800,
      "Ġcancell": 7801,
      "Ġprofound": 7802,
      "Ġcharging": 7803,
      "Ġalternatives": 7804,
      "Ġharmful": 7805,
      "pat": 7806,
      "anning": 7807,
      "Ġvib": 7808,
      "Ġacting": 7809,
      "Ġentit": 7810,
      "Ġcalm": 7811,
      "Ġdemonstrate": 7812,
      "ĠType": 7813,
      "Ġloves": 7814,
      "Ġliquid": 7815,
      "zil": 7816,
      "ĠCredit": 7817,
      "Ġtwist": 7818,
      "Ġresolve": 7819,
      "48": 7820,
      "ĠLo": 7821,
      "ĠAlways": 7822,
      "ersey": 7823,
      "uties": 7824,
      "ĠEnd": 7825,
      "Ġentr": 7826,
      "Ġsignature": 7827,
      "Ġbrush": 7828,
      "Ġedition": 7829,
      "scale": 7830,
      "Ġaudiences": 7831,
      "Ġhassle": 7832,
      "ĠMembers": 7833,
      "Ġworkshop": 7834,
      "38": 7835,
      "AY": 7836,
      "Ġbear": 7837,
      "ĠPop": 7838,
      "Ġtelevision": 7839,
      "Ġreceipt": 7840,
      "ĠScott": 7841,
      "ĠProducts": 7842,
      "Ġcontrolled": 7843,
      "Ġacknowled": 7844,
      "Ġcable": 7845,
      "Ġprev": 7846,
      "Ġoperators": 7847,
      "EP": 7848,
      "site": 7849,
      "Ġgrew": 7850,
      "Ġrank": 7851,
      "Ġinstantly": 7852,
      "Ġraw": 7853,
      "azz": 7854,
      "Ġencouraged": 7855,
      "Ġpregnancy": 7856,
      "Ġasp": 7857,
      "Ġchief": 7858,
      "rently": 7859,
      "Ġoriginally": 7860,
      "Ġintellectual": 7861,
      "Ġinfection": 7862,
      "ĠPolice": 7863,
      "BD": 7864,
      "II": 7865,
      "eters": 7866,
      "ĠFurthermore": 7867,
      "osc": 7868,
      "Ġlovely": 7869,
      "Ġglobe": 7870,
      "Ġenforcement": 7871,
      "ĠTal": 7872,
      "Ġdestroy": 7873,
      "Ġfighting": 7874,
      "Click": 7875,
      "Ġincentives": 7876,
      "ircle": 7877,
      "ĠMid": 7878,
      "Ġfourth": 7879,
      "EV": 7880,
      "Ġsought": 7881,
      "ulum": 7882,
      "ĠHard": 7883,
      "Ġrepresentation": 7884,
      "Ġimplemented": 7885,
      "ĠPenn": 7886,
      "Ġvess": 7887,
      "Ġclothes": 7888,
      "Ġrecyc": 7889,
      "Ġsheet": 7890,
      "Ġcombine": 7891,
      "Ġcelebration": 7892,
      "Ġnarrative": 7893,
      "Ġ×": 7894,
      "Ġsegment": 7895,
      "Ġdelays": 7896,
      "Ġ48": 7897,
      "Ġessence": 7898,
      "Ġexpanding": 7899,
      "Ġhorse": 7900,
      "Ġethical": 7901,
      "Ġelevate": 7902,
      "inem": 7903,
      "Ġpeak": 7904,
      "Ġcompetitors": 7905,
      "ucky": 7906,
      "Ġlayout": 7907,
      "Ġpersonnel": 7908,
      "Ġentering": 7909,
      "Ġdefine": 7910,
      "Ġsections": 7911,
      "Ġisol": 7912,
      "Ġalter": 7913,
      "Ġcontainer": 7914,
      "Exper": 7915,
      "ĠCarolina": 7916,
      "ĠBang": 7917,
      "Ġcounty": 7918,
      "Ġordered": 7919,
      "Ġdrawing": 7920,
      "Ġvictory": 7921,
      "SC": 7922,
      "ĠTown": 7923,
      "ĠSav": 7924,
      "ĠMaterial": 7925,
      "that": 7926,
      "ervice": 7927,
      "Ġinspire": 7928,
      "Ġinquir": 7929,
      "Ġplacing": 7930,
      "ĠContin": 7931,
      "cers": 7932,
      "Ġborder": 7933,
      "ĠDou": 7934,
      "Add": 7935,
      "Ġvillage": 7936,
      "32": 7937,
      "bar": 7938,
      "ĠTar": 7939,
      "ĠFuture": 7940,
      "xic": 7941,
      "Ġoral": 7942,
      "cessary": 7943,
      "rencies": 7944,
      "ĠBuild": 7945,
      "ĠIreland": 7946,
      "PL": 7947,
      "inter": 7948,
      "Ġ(âĢľ": 7949,
      "Ġdrain": 7950,
      "Ġcalendar": 7951,
      "ĠSmall": 7952,
      "TC": 7953,
      "Ġchocolate": 7954,
      "Ġdefect": 7955,
      "Ġpartnerships": 7956,
      "Ġnormally": 7957,
      "aper": 7958,
      "Ġlunch": 7959,
      "ĠSection": 7960,
      "ĠWall": 7961,
      "Ġnewsletter": 7962,
      "Ġlayers": 7963,
      "Ġcontained": 7964,
      "Ġdepression": 7965,
      "Ġfolks": 7966,
      "55": 7967,
      "Ġiron": 7968,
      "Ġdraft": 7969,
      "grade": 7970,
      "Ġseriously": 7971,
      "Ġincorporating": 7972,
      "Ġmild": 7973,
      "ĠStat": 7974,
      "Ġguitar": 7975,
      "print": 7976,
      "pending": 7977,
      "Ġtall": 7978,
      "Ġlift": 7979,
      "Ġarbit": 7980,
      "Ġstrive": 7981,
      "Ġtissue": 7982,
      "kins": 7983,
      "oos": 7984,
      "umm": 7985,
      "ĠDespite": 7986,
      "Ġcontinuing": 7987,
      "Ġluxurious": 7988,
      "Ġimmersive": 7989,
      "mal": 7990,
      "Ġtelling": 7991,
      "Ġbags": 7992,
      "irts": 7993,
      "Ġrestore": 7994,
      "Ġblockchain": 7995,
      "Ġcoins": 7996,
      "Ġpra": 7997,
      "Ġnoticed": 7998,
      "oving": 7999,
      "Ġexploration": 8000,
      "Ġmetrics": 8001,
      "ĠEmail": 8002,
      "ĠDiscover": 8003,
      "vy": 8004,
      "Ġfestival": 8005,
      "ione": 8006,
      "icted": 8007,
      "ĠSche": 8008,
      "Ġshapes": 8009,
      "Ġterror": 8010,
      "Ġcaut": 8011,
      "Ġtrim": 8012,
      "liament": 8013,
      "ĠQuick": 8014,
      "Sim": 8015,
      "Ġvert": 8016,
      "Ġfalse": 8017,
      "aste": 8018,
      "Sign": 8019,
      "Ġsuits": 8020,
      "Ġranging": 8021,
      "Ġupper": 8022,
      "Ġdispl": 8023,
      "Ġlisting": 8024,
      "Ġmeticul": 8025,
      "ĠSecond": 8026,
      "gs": 8027,
      "ĠRa": 8028,
      "Ġovercome": 8029,
      "Ġminimize": 8030,
      "ĠNeed": 8031,
      "Ġbrown": 8032,
      "Ġorganisations": 8033,
      "High": 8034,
      "Ġsight": 8035,
      "ĠBenefits": 8036,
      "ĠHim": 8037,
      "ĠEnsure": 8038,
      "ĠPrice": 8039,
      "Ġhotels": 8040,
      "Ġpanels": 8041,
      "Ġillegal": 8042,
      "Ġfell": 8043,
      "Ġroulette": 8044,
      "retion": 8045,
      "Ġscientists": 8046,
      "commerce": 8047,
      "miss": 8048,
      "isdom": 8049,
      "ĠPeter": 8050,
      "ĠLLC": 8051,
      "ĠLevel": 8052,
      "Join": 8053,
      "ports": 8054,
      "Ġtip": 8055,
      "âĢĻ,": 8056,
      "ĠFact": 8057,
      "ĠFac": 8058,
      "aze": 8059,
      "Ġinstitution": 8060,
      "Ġathletes": 8061,
      "EW": 8062,
      "Spe": 8063,
      "anies": 8064,
      "Ġpassing": 8065,
      "Ġoccurs": 8066,
      "ws": 8067,
      "Ġkne": 8068,
      "Ġnecessarily": 8069,
      "ĠUsers": 8070,
      "ĠHotel": 8071,
      "ĠDIY": 8072,
      "orce": 8073,
      "och": 8074,
      "ĠEasy": 8075,
      "Ġempt": 8076,
      "Ġfewer": 8077,
      "ĠProfessor": 8078,
      "ĠDownload": 8079,
      "Ġfavourite": 8080,
      "Ġcher": 8081,
      "enities": 8082,
      "Ġduty": 8083,
      "charge": 8084,
      "ĠAsian": 8085,
      "Ġmuse": 8086,
      "Ġboundaries": 8087,
      "Ġinclusive": 8088,
      "Ġborrow": 8089,
      "Ġnone": 8090,
      "oty": 8091,
      "ĠAri": 8092,
      "Ġautomatic": 8093,
      "Ġcuts": 8094,
      "Ġbanking": 8095,
      "ilation": 8096,
      "ĠWelcome": 8097,
      "Ġconcerning": 8098,
      "Ġlifetime": 8099,
      "Ġindicates": 8100,
      "paper": 8101,
      "Ġsurfaces": 8102,
      "Ġphilosoph": 8103,
      "looking": 8104,
      "Ġinject": 8105,
      "ĠPDF": 8106,
      "Ġchips": 8107,
      "Ġcoaching": 8108,
      "ĠCommon": 8109,
      "ĠCoast": 8110,
      "ĠFeatures": 8111,
      "Ġblackjack": 8112,
      "Ġfilling": 8113,
      "Ġstopped": 8114,
      "Ġdoctors": 8115,
      "ancer": 8116,
      "Ġtransmission": 8117,
      "ĠPerfect": 8118,
      "Ġterrit": 8119,
      "Ġopinions": 8120,
      "Tok": 8121,
      "born": 8122,
      "ĠNumber": 8123,
      "Ġtrick": 8124,
      "encing": 8125,
      "ternoon": 8126,
      "Ġthin": 8127,
      "raction": 8128,
      "uls": 8129,
      "ĠFarm": 8130,
      "Ġprison": 8131,
      "Ġencourages": 8132,
      "Ġincorporate": 8133,
      "Ġawesome": 8134,
      "TA": 8135,
      "Ġcosm": 8136,
      "Ġwarn": 8137,
      "Ġnuclear": 8138,
      "Ġaside": 8139,
      "Ġmainly": 8140,
      "Ġintegrate": 8141,
      "Ġvariations": 8142,
      "Ġawards": 8143,
      "Ġthread": 8144,
      "Ġchapter": 8145,
      "Ġauthorized": 8146,
      "Ġwallet": 8147,
      "ato": 8148,
      "itt": 8149,
      "Ġhall": 8150,
      "ĠEss": 8151,
      "Ġextension": 8152,
      "Ġintricate": 8153,
      "Ġfib": 8154,
      "uster": 8155,
      "Ġinval": 8156,
      "Ġgrace": 8157,
      "Ġreputable": 8158,
      "Go": 8159,
      "vin": 8160,
      "igen": 8161,
      "olit": 8162,
      "olves": 8163,
      "ĠVideo": 8164,
      "Ġengines": 8165,
      "ĠPrime": 8166,
      "Ġacknowledge": 8167,
      "ĠOfficer": 8168,
      "Ġintuitive": 8169,
      "mits": 8170,
      "inity": 8171,
      "Ġduration": 8172,
      "Ġsupportive": 8173,
      "Ġpersons": 8174,
      "atre": 8175,
      "Ġalumin": 8176,
      "Ġequally": 8177,
      "eness": 8178,
      "eto": 8179,
      "orship": 8180,
      "Ġattached": 8181,
      "Ġtradem": 8182,
      "TM": 8183,
      "anted": 8184,
      "ĠLin": 8185,
      "Ġarms": 8186,
      "Ġoptimization": 8187,
      "Ġpromotion": 8188,
      "Ġaesthet": 8189,
      "Learn": 8190,
      "Pe": 8191,
      "Ġcompr": 8192,
      "Ġteen": 8193,
      "Ġrequiring": 8194,
      "Ġoperates": 8195,
      "Ġgrade": 8196,
      "Ġcarrying": 8197,
      "31": 8198,
      "izer": 8199,
      "Ġhybrid": 8200,
      "Ġtargets": 8201,
      "Ġbedroom": 8202,
      "Ġadjustments": 8203,
      "LS": 8204,
      "Ġphen": 8205,
      "Ġreserve": 8206,
      "ĠPakistan": 8207,
      "gency": 8208,
      "abled": 8209,
      "Ġexplains": 8210,
      "Also": 8211,
      "Ġsuggestions": 8212,
      "Ġinspection": 8213,
      "Ġhel": 8214,
      "Ġmedications": 8215,
      "Ġbirthday": 8216,
      "Ġworkshops": 8217,
      "ĠWordPress": 8218,
      "ĠVictor": 8219,
      "Sm": 8220,
      "rations": 8221,
      "Ġdivid": 8222,
      "ells": 8223,
      "Ġexposed": 8224,
      "Ġrespective": 8225,
      "Ġenterprises": 8226,
      "Play": 8227,
      "ifferent": 8228,
      "ĠWH": 8229,
      "Ġdetection": 8230,
      "Ġharder": 8231,
      "Ġviewing": 8232,
      "ĠFrank": 8233,
      "Ġcollective": 8234,
      "olec": 8235,
      "ĠArea": 8236,
      "lasting": 8237,
      "Ġshooting": 8238,
      "Ġsettlement": 8239,
      "Ġaccomplish": 8240,
      "ias": 8241,
      "Ġtro": 8242,
      "Ġcombat": 8243,
      "Ġinflation": 8244,
      "Ġintroduction": 8245,
      "ĠTen": 8246,
      "Ġcompelling": 8247,
      "uke": 8248,
      "Ġtank": 8249,
      "ĠWhe": 8250,
      "ivacy": 8251,
      "ĠOl": 8252,
      "Inc": 8253,
      "Ġ2007": 8254,
      "ĠSometimes": 8255,
      "ĠAp": 8256,
      "Ġalive": 8257,
      "Ġdiabetes": 8258,
      "itution": 8259,
      "Ġreplaced": 8260,
      "Ġoverwhelming": 8261,
      "%,": 8262,
      "Ġapparent": 8263,
      "ĠShare": 8264,
      "Ġfiled": 8265,
      "Ġstreamline": 8266,
      "Ġdash": 8267,
      "ĠJo": 8268,
      "ĠViet": 8269,
      "Ġcompletion": 8270,
      "Ġconnecting": 8271,
      "Ġclaimed": 8272,
      "Ġvenue": 8273,
      "Ġdil": 8274,
      "Ġinclusion": 8275,
      "Ġhealthier": 8276,
      "Ġhumans": 8277,
      "Ġleveraging": 8278,
      "ME": 8279,
      "Top": 8280,
      "ĠHaving": 8281,
      "apore": 8282,
      "Ġlaid": 8283,
      "ECT": 8284,
      "Ġtimeless": 8285,
      "Ġsacr": 8286,
      "Ġstreets": 8287,
      "Follow": 8288,
      "Ġheads": 8289,
      "Ġunders": 8290,
      "ĠEvent": 8291,
      "Ġfaculty": 8292,
      "ĠChall": 8293,
      "Ġprogramming": 8294,
      "Ġfactory": 8295,
      "ĠTech": 8296,
      "Ġbasket": 8297,
      "Ġexercises": 8298,
      "SP": 8299,
      "Ġsad": 8300,
      "Ġnarrow": 8301,
      "raid": 8302,
      "TER": 8303,
      "Ġmine": 8304,
      "ĠFriend": 8305,
      "ĠEmer": 8306,
      "Ġindoor": 8307,
      "icket": 8308,
      "Ġrail": 8309,
      "Ġperformances": 8310,
      "ĠAff": 8311,
      "utral": 8312,
      "ĠLG": 8313,
      "ordinary": 8314,
      "49": 8315,
      "mond": 8316,
      "vision": 8317,
      "wo": 8318,
      "xid": 8319,
      "Ġtom": 8320,
      "forget": 8321,
      "ailing": 8322,
      "Ġcoat": 8323,
      "ĠParticip": 8324,
      "Ġfairly": 8325,
      "Ġglobally": 8326,
      "RP": 8327,
      "itis": 8328,
      "Ġfiber": 8329,
      "oston": 8330,
      "ĠJim": 8331,
      "Ġrefers": 8332,
      "ested": 8333,
      "ĠThus": 8334,
      "Ġhoriz": 8335,
      "CL": 8336,
      "Ġinflamm": 8337,
      "Ġsuggested": 8338,
      "ĠIran": 8339,
      "Ġcotton": 8340,
      "ĠWrit": 8341,
      "Ġ2000": 8342,
      "Ġsurge": 8343,
      "Ġchecks": 8344,
      "ĠSpring": 8345,
      "Ġobjective": 8346,
      "Ġfert": 8347,
      "utical": 8348,
      "amber": 8349,
      "Ġsaved": 8350,
      "Ġawarded": 8351,
      "Contact": 8352,
      "Ġlikes": 8353,
      "ĠWithout": 8354,
      "Ġestimate": 8355,
      "Ġvolat": 8356,
      "Ġcomparison": 8357,
      "Sub": 8358,
      "Ġtang": 8359,
      "Ġcompact": 8360,
      "Ġendless": 8361,
      "Ġapplies": 8362,
      "Ġwave": 8363,
      "à¯": 8364,
      "Ġbone": 8365,
      "astern": 8366,
      "stery": 8367,
      "Ġcolumn": 8368,
      "ologist": 8369,
      "Ġ75": 8370,
      "annel": 8371,
      "Ġrepresentative": 8372,
      "ĠVisit": 8373,
      "Ġbaking": 8374,
      "Ġdevot": 8375,
      "Ġpermitted": 8376,
      "ĠHospital": 8377,
      "oto": 8378,
      "ĠBrown": 8379,
      "ĠWatch": 8380,
      "Ġpolitics": 8381,
      "Additionally": 8382,
      "Ġnurt": 8383,
      "Ġstuck": 8384,
      "Ġconvey": 8385,
      "agon": 8386,
      "Ġclicking": 8387,
      "Ġindeed": 8388,
      "Ġprize": 8389,
      "Ġpacked": 8390,
      "Ġforever": 8391,
      "ITY": 8392,
      "Ġexception": 8393,
      "Ġguaranteed": 8394,
      "rimination": 8395,
      "Ġalleged": 8396,
      "ĠYet": 8397,
      "obe": 8398,
      "ĠAirport": 8399,
      "ĠLegal": 8400,
      "Ġquantity": 8401,
      "Ġacquisition": 8402,
      "ien": 8403,
      "umer": 8404,
      "ella": 8405,
      "Start": 8406,
      "ĠPerformance": 8407,
      "press": 8408,
      "Ġsin": 8409,
      "omy": 8410,
      "ateful": 8411,
      "Ġaccum": 8412,
      "Ġprofiles": 8413,
      "bersecurity": 8414,
      "Ġocean": 8415,
      "stal": 8416,
      "ĠEX": 8417,
      "Ġ150": 8418,
      "Ġbrill": 8419,
      "Ġsalary": 8420,
      "Ġaudit": 8421,
      "Ġpicked": 8422,
      "Ġboxes": 8423,
      "Ġvictims": 8424,
      "lo": 8425,
      "iti": 8426,
      "lywood": 8427,
      "Ġservers": 8428,
      "Ġinvite": 8429,
      "Ġcompleting": 8430,
      "Ġlargely": 8431,
      "Ġseasoned": 8432,
      "Ġproposal": 8433,
      "Ġicon": 8434,
      "esterday": 8435,
      "Ġthoroughly": 8436,
      "Ġrecipes": 8437,
      "NS": 8438,
      "function": 8439,
      "hem": 8440,
      "ĠDO": 8441,
      "Ġcompassion": 8442,
      "acious": 8443,
      "Ġimpression": 8444,
      "aken": 8445,
      "plement": 8446,
      "iana": 8447,
      "Ġbasically": 8448,
      "Ġcollaborative": 8449,
      "Ġobserved": 8450,
      "yan": 8451,
      "ĠRo": 8452,
      "ĠSpirit": 8453,
      "Ġcooling": 8454,
      "ĠJustice": 8455,
      "Ġware": 8456,
      "una": 8457,
      "ĠHD": 8458,
      "Ġresc": 8459,
      "Ġaccidents": 8460,
      "Ġunderlying": 8461,
      "Ġdiscretion": 8462,
      "Ġfaces": 8463,
      "ieties": 8464,
      "Ġstruggling": 8465,
      "from": 8466,
      "Ġspecified": 8467,
      "Ġpromises": 8468,
      "Ġlanguages": 8469,
      "ĠNigeria": 8470,
      "Us": 8471,
      "adow": 8472,
      "Ġkill": 8473,
      "Ġcustomize": 8474,
      "Ġvisited": 8475,
      "Ġbeautifully": 8476,
      "Ġslowly": 8477,
      "Ġgranted": 8478,
      "Ġlawyers": 8479,
      "Ġcooperation": 8480,
      "forgettable": 8481,
      "power": 8482,
      "eras": 8483,
      "ĠHon": 8484,
      "ĠLibrary": 8485,
      "ĠNorthern": 8486,
      "duate": 8487,
      "ipal": 8488,
      "ĠWhich": 8489,
      "Ġphotography": 8490,
      "Ġafternoon": 8491,
      "ĠClean": 8492,
      "Ġinterviews": 8493,
      "Ġvulnerable": 8494,
      "Ġvegetables": 8495,
      "39": 8496,
      "Best": 8497,
      "ĠCP": 8498,
      "Ġrequested": 8499,
      "ĠBrazil": 8500,
      "books": 8501,
      "etry": 8502,
      "âĢĿ)": 8503,
      "Ġartwork": 8504,
      "Ġreturning": 8505,
      "Ġlightweight": 8506,
      "Ġapartment": 8507,
      "ĠGambling": 8508,
      "ixture": 8509,
      "May": 8510,
      "Ġbars": 8511,
      "olid": 8512,
      "Ġrural": 8513,
      "aza": 8514,
      "Ġsubjects": 8515,
      "oured": 8516,
      "sts": 8517,
      "rape": 8518,
      "ĠBox": 8519,
      "Ġentity": 8520,
      "Ġgovernments": 8521,
      "opyright": 8522,
      "Make": 8523,
      "tical": 8524,
      "orse": 8525,
      "orry": 8526,
      "arios": 8527,
      "igure": 8528,
      "ĠSn": 8529,
      "ĠMur": 8530,
      "ĠLED": 8531,
      "Ġspray": 8532,
      "ĠANY": 8533,
      "Ġpsychological": 8534,
      "Ġpublishing": 8535,
      "LY": 8536,
      "orrect": 8537,
      "idal": 8538,
      "sem": 8539,
      "Ġvintage": 8540,
      "ivals": 8541,
      "Ġadministrative": 8542,
      "Ġmerely": 8543,
      "ĠVietnam": 8544,
      "37": 8545,
      "Ġcake": 8546,
      "Ġrear": 8547,
      "owers": 8548,
      "compass": 8549,
      "Ġexplo": 8550,
      "Ġtracks": 8551,
      "Ġinitially": 8552,
      "inance": 8553,
      "Ġduties": 8554,
      "ĠMah": 8555,
      "Ġran": 8556,
      "duction": 8557,
      "ounded": 8558,
      "riculum": 8559,
      "Ġverification": 8560,
      "Ġsmoothly": 8561,
      "ĠPhilipp": 8562,
      "EX": 8563,
      "Ġcozy": 8564,
      "ampion": 8565,
      "Ġpublication": 8566,
      "Ġfarmers": 8567,
      "ĠÐ": 8568,
      "Ġbench": 8569,
      "Ġpubl": 8570,
      "Ġpursue": 8571,
      "Ġwagering": 8572,
      "Ġwra": 8573,
      "Ġkeys": 8574,
      "Ġsubtle": 8575,
      "Ġtrips": 8576,
      "Ġwithdrawal": 8577,
      "ĠHistory": 8578,
      "Then": 8579,
      "screen": 8580,
      "Ġfranch": 8581,
      "Ġprevention": 8582,
      "Ġbatteries": 8583,
      "ĠGaming": 8584,
      "Ġrepeated": 8585,
      "arat": 8586,
      "ĠAG": 8587,
      "Ġwashing": 8588,
      "Ġassume": 8589,
      "Ġbreaks": 8590,
      "Ġgrat": 8591,
      "Ġstorm": 8592,
      "ryption": 8593,
      "Ġamenities": 8594,
      "clusion": 8595,
      "ĠPartners": 8596,
      "ĠIndustry": 8597,
      "ĠJoe": 8598,
      "Ġintervention": 8599,
      "Ġdrinks": 8600,
      "Ġdebate": 8601,
      "rep": 8602,
      "Ġhang": 8603,
      "uter": 8604,
      "Ġconvert": 8605,
      "ĠPok": 8606,
      "ĠNov": 8607,
      "ĠUA": 8608,
      "ĠJul": 8609,
      "Ġmini": 8610,
      "Ġdrawn": 8611,
      "Ġnavigating": 8612,
      "Ġreveal": 8613,
      "Ġpromptly": 8614,
      "?\"": 8615,
      "Ġhook": 8616,
      "terior": 8617,
      "Ġcancel": 8618,
      "ĠJose": 8619,
      "ega": 8620,
      "Ġbuilds": 8621,
      "ĠSingapore": 8622,
      "ĠStandard": 8623,
      "ĠConditions": 8624,
      "ĠPacific": 8625,
      "aver": 8626,
      "gener": 8627,
      "yard": 8628,
      "Ġpills": 8629,
      "Ġprosecut": 8630,
      "Ġseeds": 8631,
      "rix": 8632,
      "ĠName": 8633,
      "Ġchemicals": 8634,
      "Ġblank": 8635,
      "Ġmining": 8636,
      "Ġadditionally": 8637,
      "ĠStudies": 8638,
      "Bet": 8639,
      "IB": 8640,
      "ĠBoy": 8641,
      "ocon": 8642,
      "Ġspoke": 8643,
      "Ġformed": 8644,
      "Ġsummary": 8645,
      "Ġafraid": 8646,
      "Ġwaters": 8647,
      "ĠJewish": 8648,
      "ĠAdvanced": 8649,
      "CD": 8650,
      "Have": 8651,
      "rets": 8652,
      "ĠTips": 8653,
      "Ġinviting": 8654,
      "ongevity": 8655,
      "Mr": 8656,
      "ao": 8657,
      "ja": 8658,
      "ĠSup": 8659,
      "ĠDream": 8660,
      "Ġunus": 8661,
      "Ġconsists": 8662,
      "Ġaddressed": 8663,
      "Ġroads": 8664,
      "ĠThomas": 8665,
      "ĠRobert": 8666,
      "Gu": 8667,
      "Ġchose": 8668,
      "aped": 8669,
      "ĠKh": 8670,
      "Ġeverywhere": 8671,
      "Ġprofits": 8672,
      "Ġreader": 8673,
      "ĠEstate": 8674,
      "Ġunderstood": 8675,
      "!)": 8676,
      "34": 8677,
      "star": 8678,
      "ĠCS": 8679,
      "ĠDaily": 8680,
      "Ġshower": 8681,
      "fall": 8682,
      "Ġpm": 8683,
      "Ġproactive": 8684,
      "ultane": 8685,
      "Ġsigning": 8686,
      "theless": 8687,
      "Ġclosing": 8688,
      "ĠCapital": 8689,
      "such": 8690,
      "Ġda": 8691,
      "acon": 8692,
      "Ġperce": 8693,
      "Ġgamers": 8694,
      "ĠUnlike": 8695,
      "Ġdrives": 8696,
      "Ġblocks": 8697,
      "Ġaccurately": 8698,
      "Ġriding": 8699,
      "email": 8700,
      "tech": 8701,
      "Ġcock": 8702,
      "Ġrealized": 8703,
      "claim": 8704,
      "ĠRichard": 8705,
      "ĠNote": 8706,
      "ĠKong": 8707,
      "Ġromantic": 8708,
      "Vis": 8709,
      "iking": 8710,
      "Ġbehavi": 8711,
      "ĠDelivery": 8712,
      "Ġpokies": 8713,
      "iating": 8714,
      "odge": 8715,
      "anned": 8716,
      "Ġenhancement": 8717,
      "Ġencouraging": 8718,
      "ĠStudents": 8719,
      "ĠPayPal": 8720,
      "Ġsupplier": 8721,
      "Ġbelieves": 8722,
      "Ġdigest": 8723,
      "Ġgathering": 8724,
      "ĠSenior": 8725,
      "ĠBoston": 8726,
      "ĠChris": 8727,
      "Ġrelaxation": 8728,
      "ĠModern": 8729,
      "Ġimplications": 8730,
      "Ġlucky": 8731,
      "Ġshops": 8732,
      "Ġinvited": 8733,
      "taining": 8734,
      "Ġstructured": 8735,
      "Ġrewarding": 8736,
      "EF": 8737,
      "icity": 8738,
      "Ġgod": 8739,
      "Ġmuscles": 8740,
      "Ġexecution": 8741,
      "Ġgraduate": 8742,
      "ĠDaniel": 8743,
      "smith": 8744,
      "Ġeggs": 8745,
      "mony": 8746,
      "ĠWil": 8747,
      "Ġbutt": 8748,
      "Ġdecline": 8749,
      "Ġexplan": 8750,
      "ANT": 8751,
      "Ġadopted": 8752,
      "ĠLittle": 8753,
      "Ġfascinating": 8754,
      "Today": 8755,
      "Ġsister": 8756,
      "Ġindex": 8757,
      "Ġfinds": 8758,
      "Ġhyper": 8759,
      "Ġhygi": 8760,
      "Ġimmune": 8761,
      "Ġfrequency": 8762,
      "limited": 8763,
      "itu": 8764,
      "ĠPut": 8765,
      "quis": 8766,
      "udi": 8767,
      "aven": 8768,
      "ĠCompl": 8769,
      "Ġdirected": 8770,
      "ĠJohnson": 8771,
      "Ġgolden": 8772,
      "Ġoccasions": 8773,
      "Ġconventional": 8774,
      "ially": 8775,
      "Ġrug": 8776,
      "Ġequival": 8777,
      "ĠBeing": 8778,
      "ĠConference": 8779,
      ");": 8780,
      "ican": 8781,
      "Ġstrongly": 8782,
      "hester": 8783,
      "Ġaccommodate": 8784,
      "va": 8785,
      "ĠStock": 8786,
      "Ġcourts": 8787,
      "ĠBlog": 8788,
      "Ġphotograp": 8789,
      "Ġhosted": 8790,
      "ĠIncre": 8791,
      "Ġpleased": 8792,
      "Ġconfiguration": 8793,
      "iates": 8794,
      "Ã¼": 8795,
      "ĠSouthern": 8796,
      "Ġlists": 8797,
      "Ġgovernance": 8798,
      "Ġversatility": 8799,
      "Ġventure": 8800,
      "ints": 8801,
      "Ġcognitive": 8802,
      "ĠGD": 8803,
      "Ġunforgettable": 8804,
      "Ġopens": 8805,
      "Ġwinnings": 8806,
      "ĠPhys": 8807,
      "Ġcryptocurrency": 8808,
      "racy": 8809,
      "ĠES": 8810,
      "Ġ36": 8811,
      "ĠIsl": 8812,
      "Ġboys": 8813,
      "Os": 8814,
      "UD": 8815,
      "iral": 8816,
      "ĠGall": 8817,
      "Ġnewly": 8818,
      "Ġfollowers": 8819,
      "Ġimproves": 8820,
      "ĠHarr": 8821,
      "ĠRO": 8822,
      "elled": 8823,
      "cm": 8824,
      "Ġorient": 8825,
      "agine": 8826,
      "ĠHeart": 8827,
      "Ġflour": 8828,
      "Ġvalued": 8829,
      "Ġtestim": 8830,
      "Ġstudying": 8831,
      "Ty": 8832,
      "bors": 8833,
      "Ġtor": 8834,
      "ĠSustain": 8835,
      "ĠCup": 8836,
      "ĠVan": 8837,
      "Ġgenerous": 8838,
      "Ġcheckout": 8839,
      "roduction": 8840,
      "Ġexistence": 8841,
      "Ġclubs": 8842,
      "ĠExpress": 8843,
      "requently": 8844,
      "Take": 8845,
      "gical": 8846,
      "Ġhur": 8847,
      "Ġscreens": 8848,
      "Ġarise": 8849,
      "Ġraising": 8850,
      "Ġaer": 8851,
      "Ġspecialists": 8852,
      "ĠScot": 8853,
      "Find": 8854,
      "Using": 8855,
      "Ġpapers": 8856,
      "ĠBiden": 8857,
      "ĠFA": 8858,
      "ĠNever": 8859,
      "ĠThink": 8860,
      "Ġclassroom": 8861,
      "Ġagreements": 8862,
      "Ġirrit": 8863,
      "ĠOptim": 8864,
      "Sec": 8865,
      "fits": 8866,
      "wan": 8867,
      "Ġrice": 8868,
      "Ġsignals": 8869,
      "Ġtraveling": 8870,
      "amsung": 8871,
      "Ġeliminate": 8872,
      "ns": 8873,
      "isp": 8874,
      "ĠLad": 8875,
      "Ġlesson": 8876,
      "Ġfalls": 8877,
      "Ġconsistency": 8878,
      "ĠMichigan": 8879,
      "Ġtackle": 8880,
      "iac": 8881,
      "anwhile": 8882,
      "Ġworst": 8883,
      "Ġsett": 8884,
      "Ġflaw": 8885,
      "Ġextraordinary": 8886,
      "Ġsmartphone": 8887,
      "Ġsubsid": 8888,
      "iami": 8889,
      "ĠElectric": 8890,
      "47": 8891,
      "Ġtoys": 8892,
      "Ġmur": 8893,
      "ĠGar": 8894,
      "aceutical": 8895,
      "there": 8896,
      "ĠUSB": 8897,
      "ĠSuccess": 8898,
      "VE": 8899,
      "Ã¢": 8900,
      "Ġpets": 8901,
      "Ġyoga": 8902,
      "employ": 8903,
      "Ġmatching": 8904,
      "Ġexhibition": 8905,
      "Note": 8906,
      "âĤ¬": 8907,
      "Ġtours": 8908,
      "Ġseasons": 8909,
      "Ġrose": 8910,
      "Ġdeveloper": 8911,
      "ĠUSD": 8912,
      "ronics": 8913,
      "ĠMedic": 8914,
      "Ġdebut": 8915,
      "ĠJeff": 8916,
      "Ġpivotal": 8917,
      "ĠFun": 8918,
      "iversary": 8919,
      "Ġformula": 8920,
      "Ġintegrating": 8921,
      "Ġexcessive": 8922,
      "Gener": 8923,
      "Ġtub": 8924,
      "ĠAction": 8925,
      "Ġalarm": 8926,
      "ĠMic": 8927,
      "Ġprovisions": 8928,
      "ĠPlayers": 8929,
      "Ġcontinuously": 8930,
      "piece": 8931,
      "Discover": 8932,
      "Because": 8933,
      "itivity": 8934,
      "leep": 8935,
      "ĠMP": 8936,
      "ERE": 8937,
      "Ġsleek": 8938,
      "ĠFinally": 8939,
      "ĠExpert": 8940,
      "oof": 8941,
      "Ġ32": 8942,
      "ĠBeaut": 8943,
      "ĠSea": 8944,
      "Ġadequate": 8945,
      "CR": 8946,
      "Col": 8947,
      "nat": 8948,
      "rite": 8949,
      "Ġfounder": 8950,
      "lymp": 8951,
      "ĠTik": 8952,
      "Ġunne": 8953,
      "Ġentitled": 8954,
      "Pay": 8955,
      "fund": 8956,
      "Ġloose": 8957,
      "char": 8958,
      "ovid": 8959,
      "pectives": 8960,
      "Ġcannabis": 8961,
      "Ġwisdom": 8962,
      "ulpt": 8963,
      "ĠDam": 8964,
      "ĠFast": 8965,
      "Ġdynamics": 8966,
      "Ġculinary": 8967,
      "ali": 8968,
      "edia": 8969,
      "ĠHen": 8970,
      "ĠRs": 8971,
      "ĠJob": 8972,
      "Ġphones": 8973,
      "Ġstoryt": 8974,
      "Ġearnings": 8975,
      "Ġdefinition": 8976,
      "Ġspeakers": 8977,
      "Ġconfirmation": 8978,
      "Ġdesktop": 8979,
      "ĠProperty": 8980,
      "46": 8981,
      "powered": 8982,
      "Ġhurt": 8983,
      "ilarly": 8984,
      "izations": 8985,
      "ĠURL": 8986,
      "ouses": 8987,
      "Ġmaintained": 8988,
      "ĠMedicine": 8989,
      "Ġlib": 8990,
      "arters": 8991,
      "Ġexperim": 8992,
      "ĠVPN": 8993,
      "ĠResources": 8994,
      "Ġemotion": 8995,
      "Ġcaptivating": 8996,
      "Ġseller": 8997,
      "ĠNatural": 8998,
      "ĠTools": 8999,
      "HD": 9000,
      "ĠOil": 9001,
      "haust": 9002,
      "ĠAdministration": 9003,
      "esh": 9004,
      "Ġcostly": 9005,
      "Ġdefe": 9006,
      "Ġguarantees": 9007,
      "bel": 9008,
      "ht": 9009,
      "ĠTable": 9010,
      "iform": 9011,
      "osa": 9012,
      "berry": 9013,
      "Ġprominent": 9014,
      "Ġzone": 9015,
      "burg": 9016,
      "Ġprotocols": 9017,
      "Set": 9018,
      "Ġram": 9019,
      "otics": 9020,
      "cked": 9021,
      "ĠOwn": 9022,
      "Ġconnectivity": 9023,
      "Ġmechanism": 9024,
      "ĠMike": 9025,
      "cket": 9026,
      "Ġadm": 9027,
      "Ġtalks": 9028,
      "Ġsurprising": 9029,
      "rection": 9030,
      "Ġwise": 9031,
      "Ġwarning": 9032,
      "Ġanonym": 9033,
      "ĠMember": 9034,
      "Ġdisability": 9035,
      "Ġshouldn": 9036,
      "Ġnetworking": 9037,
      "Ġreleases": 9038,
      "Ġassigned": 9039,
      "specific": 9040,
      "Ġgiant": 9041,
      "ortion": 9042,
      "Ġmilest": 9043,
      "ennis": 9044,
      "Ġstatistics": 9045,
      "Ġinjured": 9046,
      "Ġwarmth": 9047,
      "Despite": 9048,
      "Ġdecrease": 9049,
      "Trans": 9050,
      "FO": 9051,
      "rog": 9052,
      "Ġdelicate": 9053,
      "Ġniche": 9054,
      "andon": 9055,
      "iano": 9056,
      "Through": 9057,
      "Ġrealm": 9058,
      "ĠSeason": 9059,
      "ocument": 9060,
      "ĠImport": 9061,
      "Ġcameras": 9062,
      "Ġcompatible": 9063,
      "ĠHong": 9064,
      "Ġdistingu": 9065,
      "ĠAvailable": 9066,
      "Ġscenes": 9067,
      "Ġobstac": 9068,
      "abil": 9069,
      "ĠLot": 9070,
      "Ġattended": 9071,
      "Ġfinest": 9072,
      "ĠForce": 9073,
      "ART": 9074,
      "ĠMinistry": 9075,
      "Ġwelcoming": 9076,
      "Ġbacteria": 9077,
      "300": 9078,
      "Ġyours": 9079,
      "ĠPu": 9080,
      "ogen": 9081,
      "Ġstring": 9082,
      "Ġengineers": 9083,
      "Ġtailor": 9084,
      "Ġol": 9085,
      "ĠTurn": 9086,
      "Ġunion": 9087,
      "Ġscenarios": 9088,
      "Ġfruits": 9089,
      "Ġtoler": 9090,
      "Ġliable": 9091,
      "ĠBul": 9092,
      "Ġwriters": 9093,
      "ĠAppro": 9094,
      "Ġarrival": 9095,
      "Ġemphasis": 9096,
      "EG": 9097,
      "Ġlaugh": 9098,
      "uses": 9099,
      "ĠCast": 9100,
      "ĠEth": 9101,
      "ĠVers": 9102,
      "Ġflag": 9103,
      "everal": 9104,
      "sect": 9105,
      "ĠOptions": 9106,
      "Ġtravelers": 9107,
      "ĠiOS": 9108,
      "Ġattorneys": 9109,
      "Ġsamples": 9110,
      "Ġlegitimate": 9111,
      "Ã³": 9112,
      "Ġshed": 9113,
      "ĠThough": 9114,
      "ĠOrig": 9115,
      "Ġaffects": 9116,
      "Ġcontractor": 9117,
      "Ġremained": 9118,
      "ĠAuto": 9119,
      "Ġexpanded": 9120,
      "Ġtroubles": 9121,
      "Ġroots": 9122,
      "Ġcrew": 9123,
      "ĠAdvis": 9124,
      "Ġfiling": 9125,
      "ĠCollection": 9126,
      "ĠRepair": 9127,
      "Ġaligns": 9128,
      "Ġaccommodation": 9129,
      "Ġweapons": 9130,
      "ĠCru": 9131,
      "istance": 9132,
      "lder": 9133,
      "Ġmatt": 9134,
      "Ġhearts": 9135,
      "ĠMaybe": 9136,
      "Ġstructural": 9137,
      "Ġremoving": 9138,
      "Ġempty": 9139,
      "MC": 9140,
      "Ġbeef": 9141,
      "ĠRam": 9142,
      "Ġclar": 9143,
      "Ġcolours": 9144,
      "Ġ2006": 9145,
      "Ġadvertise": 9146,
      "Ġvolunteer": 9147,
      "Ġmic": 9148,
      "Ġlongevity": 9149,
      "Ġbeer": 9150,
      "ĠIce": 9151,
      "Ġencompass": 9152,
      "Ġcarpet": 9153,
      "Ġward": 9154,
      "ĠPub": 9155,
      "rame": 9156,
      "Ġtargeting": 9157,
      "Ġdeposits": 9158,
      "Ġadvancements": 9159,
      "ĠGeorg": 9160,
      "Ġsurvive": 9161,
      "ko": 9162,
      "Ġdirt": 9163,
      "Ġshine": 9164,
      "ĠLee": 9165,
      "Ġdesigning": 9166,
      "Ġvisually": 9167,
      "Ġtourism": 9168,
      "Ġestablishing": 9169,
      "ĠSlot": 9170,
      "ĠSilver": 9171,
      "depth": 9172,
      "Ġneuro": 9173,
      "ĠRod": 9174,
      "ĠEp": 9175,
      "Ġlegend": 9176,
      "ĠStory": 9177,
      "ĠCharl": 9178,
      "Ġregulation": 9179,
      "Ġrelating": 9180,
      "Ġpromotes": 9181,
      "hyth": 9182,
      "Ġtomorrow": 9183,
      "ĠLiving": 9184,
      "Ġspa": 9185,
      "Ġrealistic": 9186,
      "Ġprotective": 9187,
[...]
